
#ifndef ENCODER_MODEL_DATA_H
#define ENCODER_MODEL_DATA_H

// Auto-generated by xxd. Do not edit manually.
// Model expects SCALED input (e.g., [0, 1])

unsigned char exported_models_tflite_encoder_model_tflite[] = {
  0x1c, 0x00, 0x00, 0x00, 0x54, 0x46, 0x4c, 0x33, 0x14, 0x00, 0x20, 0x00,
  0x1c, 0x00, 0x18, 0x00, 0x14, 0x00, 0x10, 0x00, 0x0c, 0x00, 0x00, 0x00,
  0x08, 0x00, 0x04, 0x00, 0x14, 0x00, 0x00, 0x00, 0x1c, 0x00, 0x00, 0x00,
  0x98, 0x00, 0x00, 0x00, 0xf0, 0x00, 0x00, 0x00, 0xe0, 0x0b, 0x00, 0x00,
  0xf0, 0x0b, 0x00, 0x00, 0xe4, 0x10, 0x00, 0x00, 0x03, 0x00, 0x00, 0x00,
  0x01, 0x00, 0x00, 0x00, 0x10, 0x00, 0x00, 0x00, 0x00, 0x00, 0x0a, 0x00,
  0x10, 0x00, 0x0c, 0x00, 0x08, 0x00, 0x04, 0x00, 0x0a, 0x00, 0x00, 0x00,
  0x0c, 0x00, 0x00, 0x00, 0x1c, 0x00, 0x00, 0x00, 0x3c, 0x00, 0x00, 0x00,
  0x0f, 0x00, 0x00, 0x00, 0x73, 0x65, 0x72, 0x76, 0x69, 0x6e, 0x67, 0x5f,
  0x64, 0x65, 0x66, 0x61, 0x75, 0x6c, 0x74, 0x00, 0x01, 0x00, 0x00, 0x00,
  0x04, 0x00, 0x00, 0x00, 0x90, 0xff, 0xff, 0xff, 0x09, 0x00, 0x00, 0x00,
  0x04, 0x00, 0x00, 0x00, 0x08, 0x00, 0x00, 0x00, 0x6f, 0x75, 0x74, 0x70,
  0x75, 0x74, 0x5f, 0x30, 0x00, 0x00, 0x00, 0x00, 0x01, 0x00, 0x00, 0x00,
  0x04, 0x00, 0x00, 0x00, 0x2e, 0xf5, 0xff, 0xff, 0x04, 0x00, 0x00, 0x00,
  0x0d, 0x00, 0x00, 0x00, 0x65, 0x6e, 0x63, 0x6f, 0x64, 0x65, 0x72, 0x5f,
  0x69, 0x6e, 0x70, 0x75, 0x74, 0x00, 0x00, 0x00, 0x02, 0x00, 0x00, 0x00,
  0x34, 0x00, 0x00, 0x00, 0x04, 0x00, 0x00, 0x00, 0xdc, 0xff, 0xff, 0xff,
  0x0c, 0x00, 0x00, 0x00, 0x04, 0x00, 0x00, 0x00, 0x13, 0x00, 0x00, 0x00,
  0x43, 0x4f, 0x4e, 0x56, 0x45, 0x52, 0x53, 0x49, 0x4f, 0x4e, 0x5f, 0x4d,
  0x45, 0x54, 0x41, 0x44, 0x41, 0x54, 0x41, 0x00, 0x08, 0x00, 0x0c, 0x00,
  0x08, 0x00, 0x04, 0x00, 0x08, 0x00, 0x00, 0x00, 0x0b, 0x00, 0x00, 0x00,
  0x04, 0x00, 0x00, 0x00, 0x13, 0x00, 0x00, 0x00, 0x6d, 0x69, 0x6e, 0x5f,
  0x72, 0x75, 0x6e, 0x74, 0x69, 0x6d, 0x65, 0x5f, 0x76, 0x65, 0x72, 0x73,
  0x69, 0x6f, 0x6e, 0x00, 0x0d, 0x00, 0x00, 0x00, 0xec, 0x0a, 0x00, 0x00,
  0xe4, 0x0a, 0x00, 0x00, 0x54, 0x0a, 0x00, 0x00, 0x3c, 0x02, 0x00, 0x00,
  0xec, 0x01, 0x00, 0x00, 0x5c, 0x01, 0x00, 0x00, 0x44, 0x01, 0x00, 0x00,
  0xb4, 0x00, 0x00, 0x00, 0xac, 0x00, 0x00, 0x00, 0xa4, 0x00, 0x00, 0x00,
  0x9c, 0x00, 0x00, 0x00, 0x7c, 0x00, 0x00, 0x00, 0x04, 0x00, 0x00, 0x00,
  0xde, 0xf5, 0xff, 0xff, 0x04, 0x00, 0x00, 0x00, 0x68, 0x00, 0x00, 0x00,
  0x10, 0x00, 0x00, 0x00, 0x00, 0x00, 0x00, 0x00, 0x08, 0x00, 0x0e, 0x00,
  0x08, 0x00, 0x04, 0x00, 0x08, 0x00, 0x00, 0x00, 0x14, 0x00, 0x00, 0x00,
  0x2c, 0x00, 0x00, 0x00, 0x00, 0x00, 0x0a, 0x00, 0x0c, 0x00, 0x08, 0x00,
  0x00, 0x00, 0x07, 0x00, 0x0a, 0x00, 0x00, 0x00, 0x00, 0x00, 0x00, 0x01,
  0x04, 0x00, 0x00, 0x00, 0x00, 0x00, 0x00, 0x00, 0x0c, 0x00, 0x18, 0x00,
  0x14, 0x00, 0x10, 0x00, 0x0c, 0x00, 0x04, 0x00, 0x0c, 0x00, 0x00, 0x00,
  0x87, 0xf6, 0x9d, 0x9b, 0x68, 0x66, 0xae, 0x5e, 0x02, 0x00, 0x00, 0x00,
  0x02, 0x00, 0x00, 0x00, 0x04, 0x00, 0x00, 0x00, 0x06, 0x00, 0x00, 0x00,
  0x32, 0x2e, 0x31, 0x39, 0x2e, 0x30, 0x00, 0x00, 0x52, 0xf6, 0xff, 0xff,
  0x04, 0x00, 0x00, 0x00, 0x10, 0x00, 0x00, 0x00, 0x31, 0x2e, 0x35, 0x2e,
  0x30, 0x00, 0x00, 0x00, 0x00, 0x00, 0x00, 0x00, 0x00, 0x00, 0x00, 0x00,
  0x00, 0xf1, 0xff, 0xff, 0x04, 0xf1, 0xff, 0xff, 0x08, 0xf1, 0xff, 0xff,
  0x7a, 0xf6, 0xff, 0xff, 0x04, 0x00, 0x00, 0x00, 0x80, 0x00, 0x00, 0x00,
  0x9b, 0x74, 0x2b, 0xbb, 0x2e, 0x65, 0x80, 0xbe, 0x9c, 0x6a, 0xd2, 0x3e,
  0xfb, 0x6b, 0x6c, 0xbe, 0x50, 0xbd, 0x02, 0x3f, 0xf2, 0xd3, 0x9a, 0xbe,
  0x1f, 0x55, 0x0f, 0x3d, 0xa6, 0x8a, 0xed, 0x3c, 0xc2, 0x23, 0x4a, 0xbe,
  0x38, 0x3a, 0xe5, 0xbd, 0xcc, 0xd7, 0xbf, 0xbe, 0x45, 0xc8, 0x06, 0x3f,
  0x68, 0x73, 0x1d, 0xbd, 0xec, 0x6f, 0x91, 0xbe, 0xd8, 0x8f, 0x38, 0xbd,
  0xdf, 0x94, 0xf2, 0x3e, 0x5b, 0x54, 0x0c, 0x3f, 0xaa, 0x58, 0x09, 0xbe,
  0x40, 0x79, 0xf6, 0x3e, 0x58, 0x5f, 0x42, 0xbe, 0xb3, 0xa8, 0xc8, 0x3e,
  0xa2, 0x97, 0xbd, 0x3e, 0x14, 0x01, 0x65, 0x3e, 0xa8, 0x25, 0x05, 0x3f,
  0x30, 0x29, 0x0c, 0xbb, 0x17, 0x74, 0xc2, 0x3e, 0xb8, 0x84, 0x0b, 0xbe,
  0xb6, 0x25, 0xb1, 0x3e, 0x54, 0x0b, 0xfb, 0xbd, 0x10, 0xed, 0xfa, 0x3e,
  0x7d, 0xdc, 0xb7, 0x3e, 0x18, 0xce, 0x7e, 0xbe, 0x06, 0xf7, 0xff, 0xff,
  0x04, 0x00, 0x00, 0x00, 0x08, 0x00, 0x00, 0x00, 0x10, 0x02, 0x69, 0x3e,
  0x05, 0xc2, 0x4c, 0x3d, 0x1a, 0xf7, 0xff, 0xff, 0x04, 0x00, 0x00, 0x00,
  0x80, 0x00, 0x00, 0x00, 0x64, 0x33, 0xe5, 0xbb, 0x00, 0x00, 0x00, 0x00,
  0xe7, 0x97, 0xab, 0x3e, 0x00, 0x00, 0x00, 0x00, 0xe2, 0x86, 0x8e, 0xb8,
  0x00, 0x00, 0x00, 0x00, 0xfa, 0xa0, 0xa0, 0x3e, 0xaa, 0xae, 0xeb, 0x3d,
  0x00, 0x00, 0x00, 0x00, 0x00, 0x00, 0x00, 0x00, 0x00, 0x00, 0x00, 0x00,
  0xfc, 0xa8, 0xab, 0xb8, 0x00, 0x00, 0x00, 0x00, 0x00, 0x00, 0x00, 0x00,
  0x00, 0x00, 0x00, 0x00, 0x5c, 0xcc, 0xbc, 0xb8, 0xa8, 0xdf, 0xcc, 0xb8,
  0x00, 0x00, 0x00, 0x00, 0x10, 0x70, 0xed, 0xb7, 0x00, 0x00, 0x00, 0x00,
  0xb8, 0x35, 0x2a, 0xb9, 0x4f, 0x52, 0x97, 0x3e, 0xca, 0xd1, 0x8d, 0xb8,
  0x86, 0x74, 0x0f, 0xb9, 0x1d, 0xd4, 0xe4, 0xbb, 0xc0, 0x3e, 0x76, 0xbe,
  0x00, 0x00, 0x00, 0x00, 0x86, 0xa4, 0x8b, 0x3e, 0x00, 0x00, 0x00, 0x00,
  0x0d, 0x4f, 0x00, 0xb9, 0xb9, 0x10, 0x5d, 0xb9, 0x00, 0x00, 0x00, 0x00,
  0xa6, 0xf7, 0xff, 0xff, 0x04, 0x00, 0x00, 0x00, 0x40, 0x00, 0x00, 0x00,
  0x00, 0x00, 0x00, 0x00, 0x85, 0xa9, 0x86, 0x3e, 0x94, 0x7c, 0x1d, 0x3e,
  0xc9, 0x81, 0x2b, 0xbe, 0xb2, 0x51, 0x07, 0xbd, 0x5f, 0xd4, 0x6a, 0x3e,
  0x75, 0xad, 0xf0, 0x3e, 0xb8, 0xed, 0x88, 0xbc, 0x80, 0xc6, 0xd3, 0xbd,
  0x00, 0x00, 0x00, 0x00, 0x48, 0xa0, 0x1d, 0xbc, 0x7a, 0xdb, 0x69, 0x3e,
  0x40, 0xa4, 0x24, 0xbd, 0x00, 0x00, 0x00, 0x00, 0x94, 0xed, 0x14, 0xbe,
  0xc4, 0x4b, 0xa1, 0xbc, 0xf2, 0xf7, 0xff, 0xff, 0x04, 0x00, 0x00, 0x00,
  0x00, 0x08, 0x00, 0x00, 0xe0, 0x5d, 0x08, 0x3d, 0x12, 0x2a, 0xf1, 0xbd,
  0xe6, 0x4f, 0xa9, 0xbe, 0xbe, 0xcd, 0x3f, 0x3e, 0x31, 0x0b, 0x9a, 0x3e,
  0x56, 0x17, 0x4a, 0xbe, 0xde, 0x0d, 0x19, 0xbe, 0x08, 0x56, 0x3a, 0x3d,
  0x66, 0xf3, 0x63, 0xbe, 0xb0, 0xab, 0x24, 0x3d, 0x9a, 0x43, 0xfb, 0xbd,
  0x3f, 0xed, 0xac, 0xbe, 0xc8, 0xda, 0x68, 0xbe, 0xa0, 0xbf, 0xa5, 0x3d,
  0xe7, 0xd0, 0xa4, 0x3e, 0x80, 0x17, 0xaf, 0x3d, 0x40, 0x3b, 0x10, 0xbd,
  0x7c, 0xec, 0xba, 0xbd, 0x92, 0xe3, 0x22, 0x3e, 0xd2, 0xac, 0x43, 0x3e,
  0x3d, 0xc2, 0x90, 0xbe, 0xee, 0x59, 0x10, 0xbe, 0x14, 0x5e, 0xd4, 0xbd,
  0x02, 0x27, 0xa5, 0xbe, 0xe0, 0x87, 0x03, 0x3e, 0x73, 0xd9, 0x80, 0xbe,
  0x33, 0xdc, 0x24, 0xbe, 0xb0, 0xad, 0xc8, 0xbd, 0x10, 0xd4, 0x75, 0x3d,
  0x2f, 0xc6, 0x87, 0x3e, 0x7d, 0xd7, 0x3e, 0xbe, 0x30, 0xce, 0x26, 0x3d,
  0x6b, 0x1f, 0xb0, 0x3e, 0xcd, 0x62, 0x1b, 0xbe, 0x5c, 0x09, 0x42, 0x3e,
  0x20, 0x9e, 0x55, 0xbd, 0x6d, 0xec, 0xbe, 0xbe, 0x96, 0xe7, 0x2f, 0xbe,
  0x47, 0xfd, 0x17, 0x3f, 0x52, 0x1a, 0x53, 0xbd, 0x53, 0x49, 0x98, 0x3e,
  0x0b, 0x7e, 0x13, 0xbe, 0x12, 0x51, 0x6b, 0x3e, 0xd1, 0x40, 0x32, 0xbe,
  0x40, 0x66, 0xb3, 0x3c, 0x12, 0x02, 0x26, 0x3e, 0x09, 0x36, 0xa1, 0x3e,
  0x49, 0xeb, 0x8e, 0xbe, 0xa5, 0x68, 0x83, 0xbe, 0x2b, 0x41, 0xac, 0x3e,
  0x98, 0x96, 0x8d, 0xbe, 0x3e, 0xf4, 0x02, 0xbe, 0x32, 0xd5, 0x46, 0xbd,
  0xc5, 0xe5, 0x7d, 0x3e, 0x11, 0x77, 0xab, 0x3c, 0xc1, 0x4a, 0x80, 0x3d,
  0x5e, 0x47, 0x2e, 0xbe, 0xcf, 0xf5, 0x88, 0xbe, 0x90, 0x13, 0xbc, 0xbd,
  0x68, 0xdf, 0x6d, 0x3d, 0xb9, 0xb1, 0x60, 0xbe, 0x81, 0x49, 0x67, 0x3e,
  0xd2, 0x2c, 0xa3, 0xbe, 0x52, 0xfa, 0x70, 0x3e, 0x9c, 0xdc, 0xa2, 0x3e,
  0x15, 0x8b, 0x6b, 0xbe, 0x53, 0xdc, 0x01, 0x3e, 0xa1, 0xbb, 0x97, 0xbe,
  0xf7, 0xf4, 0xe0, 0xbc, 0xbe, 0x18, 0xf9, 0xbd, 0xcf, 0xb1, 0x8d, 0x3e,
  0x0b, 0xcf, 0x93, 0x3e, 0xc8, 0xcb, 0x57, 0x3d, 0x1e, 0xab, 0xec, 0xbd,
  0xc7, 0x9b, 0x9b, 0x3e, 0x38, 0x52, 0x2e, 0x3e, 0x7c, 0x7d, 0xe8, 0xbd,
  0x2b, 0x8e, 0xa7, 0x3e, 0x12, 0xe1, 0x95, 0xbe, 0xde, 0xa4, 0x9d, 0xbe,
  0x72, 0x59, 0xcb, 0xbe, 0xa2, 0x21, 0x52, 0x3e, 0x31, 0xca, 0xb6, 0xbe,
  0x00, 0xd7, 0xbd, 0x3d, 0xe4, 0x83, 0x8b, 0x3d, 0xc8, 0x21, 0x6a, 0xbc,
  0x65, 0xb0, 0xd3, 0xbe, 0x14, 0x62, 0x37, 0x3e, 0x46, 0x55, 0x40, 0xbe,
  0xd8, 0xa9, 0xe7, 0x3b, 0x0c, 0x13, 0x88, 0xbd, 0x55, 0x01, 0xfd, 0x3d,
  0x12, 0x4b, 0x63, 0x3e, 0x6d, 0xc9, 0xb9, 0xbd, 0xba, 0xce, 0x8d, 0x3d,
  0x1f, 0x91, 0x95, 0x3e, 0xfb, 0x88, 0x56, 0xbe, 0x2f, 0xb8, 0xb0, 0xbe,
  0xce, 0x3d, 0xec, 0x3e, 0x6a, 0x93, 0x0e, 0x3e, 0xd7, 0x55, 0x11, 0xbd,
  0x7c, 0x77, 0x95, 0xbd, 0x78, 0x9f, 0xf8, 0x3d, 0xa2, 0x2a, 0x62, 0xbe,
  0x4d, 0xc7, 0x9a, 0x3e, 0x86, 0x4e, 0x36, 0x3e, 0xa9, 0x4d, 0xa0, 0xbe,
  0x9d, 0x26, 0xc9, 0x3e, 0xe0, 0x9a, 0x99, 0xbd, 0x2b, 0x16, 0x1f, 0xbe,
  0x7c, 0x79, 0xe4, 0xbd, 0xb9, 0x09, 0xd2, 0x3e, 0x40, 0x7b, 0x10, 0xbc,
  0xda, 0xd0, 0x6e, 0xbe, 0x0b, 0xec, 0xc9, 0xbc, 0xa8, 0x40, 0x30, 0x3d,
  0xf1, 0x3a, 0x8c, 0x3d, 0x35, 0x59, 0xae, 0x3e, 0xcf, 0xfa, 0x29, 0x3e,
  0x73, 0x50, 0x86, 0x3e, 0xd3, 0xc4, 0x29, 0x3e, 0x27, 0x02, 0x32, 0x3f,
  0x80, 0x3f, 0x51, 0x3d, 0x0b, 0xc8, 0xa2, 0x3d, 0x46, 0x9f, 0x64, 0x3e,
  0x08, 0x55, 0xa7, 0x3e, 0x26, 0x86, 0xe1, 0x3e, 0x91, 0xc4, 0x88, 0x3e,
  0x88, 0x36, 0x0c, 0xbe, 0x94, 0x43, 0xef, 0x3d, 0x92, 0xf2, 0x27, 0xbe,
  0x28, 0x58, 0x15, 0x3e, 0x79, 0xe4, 0x8b, 0xbd, 0x3e, 0x88, 0x61, 0x3e,
  0x84, 0xd1, 0xe2, 0x3d, 0x15, 0x0e, 0x51, 0xbe, 0x8a, 0x11, 0x26, 0x3e,
  0xc6, 0x07, 0x69, 0x3e, 0xe8, 0x8e, 0x63, 0x3d, 0x1b, 0x0c, 0x4c, 0x3e,
  0x6c, 0x59, 0x0c, 0x3e, 0x75, 0xa1, 0x08, 0xbe, 0xe8, 0x27, 0x6a, 0xbd,
  0x9d, 0x54, 0x0b, 0x3e, 0xaf, 0xa3, 0xb9, 0xbe, 0x10, 0x2b, 0x72, 0xbd,
  0xd1, 0x75, 0x91, 0x3e, 0x36, 0xfe, 0x65, 0x3e, 0xdf, 0x58, 0x25, 0xbe,
  0x51, 0x3d, 0x36, 0x3e, 0xf4, 0xa1, 0x58, 0xbe, 0xd6, 0xe2, 0x0e, 0xbc,
  0x22, 0x7b, 0x04, 0x3d, 0xfa, 0xeb, 0xbd, 0xbe, 0xae, 0x47, 0x4f, 0x3e,
  0x3a, 0xf7, 0x8e, 0xbe, 0x2c, 0x3f, 0x0f, 0x3e, 0x12, 0x9e, 0x95, 0x3e,
  0x53, 0x98, 0x8c, 0x3e, 0x76, 0x73, 0x23, 0x3e, 0x4d, 0xd1, 0x89, 0xbe,
  0xe0, 0x3b, 0xa8, 0xbe, 0xe2, 0x48, 0x3e, 0xbe, 0x40, 0x08, 0x8a, 0xbc,
  0x8d, 0x1f, 0xde, 0x3d, 0x70, 0xca, 0x8a, 0xbe, 0xfc, 0x39, 0xf0, 0x3e,
  0x52, 0x21, 0xda, 0x3e, 0x60, 0xd9, 0x75, 0x3d, 0x88, 0x87, 0x85, 0xbd,
  0xc1, 0x34, 0x8d, 0x3e, 0x76, 0xa0, 0x97, 0xbe, 0xbe, 0xc7, 0x73, 0x3e,
  0x38, 0x69, 0x10, 0x3e, 0xd0, 0x60, 0x75, 0x3d, 0x5e, 0x65, 0x31, 0x3b,
  0xf3, 0x9e, 0x84, 0xbd, 0x3f, 0x9a, 0x89, 0x3e, 0x0f, 0x7a, 0xb3, 0xbe,
  0x2c, 0xdc, 0x53, 0xbe, 0x70, 0x3b, 0x8d, 0xbd, 0x78, 0xed, 0x3c, 0x3e,
  0x48, 0x5e, 0x96, 0x3e, 0xff, 0x5a, 0x93, 0xbd, 0x00, 0xc4, 0xe4, 0xbb,
  0xae, 0x49, 0x02, 0xbf, 0x38, 0xfe, 0xd0, 0xbd, 0x63, 0x8d, 0xe7, 0x3d,
  0x65, 0x81, 0xa7, 0xbe, 0xa6, 0xf4, 0xb6, 0xbe, 0x0e, 0xc4, 0xee, 0x3d,
  0xc0, 0xe7, 0x71, 0xbc, 0x89, 0xab, 0x8e, 0xbe, 0xf6, 0xd8, 0x58, 0x3e,
  0xeb, 0x9c, 0xf9, 0x3e, 0x68, 0xd7, 0x06, 0xbe, 0xe6, 0x2b, 0x4d, 0x3e,
  0x88, 0x7d, 0x97, 0xbd, 0xf7, 0x31, 0x0b, 0x3f, 0x8c, 0x44, 0x5e, 0x3d,
  0x6a, 0x3f, 0x58, 0x3e, 0xfb, 0x1e, 0x83, 0x3e, 0x4a, 0x78, 0x58, 0xbe,
  0x37, 0x0c, 0x69, 0x3e, 0x78, 0xa0, 0x50, 0x3d, 0x60, 0x5f, 0x85, 0x3c,
  0x75, 0x42, 0xa9, 0x3e, 0x13, 0xec, 0xf6, 0x3e, 0xcd, 0x19, 0xde, 0xbd,
  0x2b, 0x8b, 0x28, 0xbe, 0xed, 0x1a, 0xc9, 0x3e, 0x44, 0x47, 0xfd, 0x3d,
  0x17, 0x9d, 0x95, 0xbd, 0x24, 0xbd, 0xae, 0x3e, 0x79, 0x97, 0x0a, 0x3e,
  0x87, 0x4e, 0x67, 0x3e, 0x14, 0xd2, 0x5f, 0xbe, 0x06, 0x90, 0x02, 0xbf,
  0x92, 0xa6, 0x45, 0x3e, 0xa5, 0x05, 0xd9, 0x3e, 0x3b, 0x9e, 0x95, 0x3e,
  0xd3, 0x38, 0x70, 0xbe, 0x3c, 0x66, 0x25, 0xbe, 0x73, 0x94, 0x95, 0xbe,
  0xa0, 0x34, 0x97, 0xbc, 0x78, 0x1f, 0x65, 0xbd, 0x05, 0xa8, 0xd7, 0x3d,
  0x8e, 0x5e, 0x4f, 0x3e, 0xe6, 0x2a, 0x5b, 0xbe, 0xb2, 0xaf, 0xf3, 0xbd,
  0x22, 0x19, 0x82, 0x3d, 0xf4, 0x5f, 0x29, 0x3e, 0x72, 0x28, 0x98, 0xbe,
  0x4c, 0x50, 0xb5, 0xbd, 0x4c, 0x5b, 0x76, 0xbe, 0x90, 0x37, 0x84, 0x3d,
  0x6c, 0x3e, 0xf3, 0x3d, 0x00, 0xc3, 0xb3, 0x3a, 0x1b, 0x76, 0x9f, 0x3e,
  0xb2, 0xef, 0xec, 0x3c, 0x18, 0xa2, 0x08, 0x3e, 0x00, 0xf8, 0x4a, 0x3c,
  0x5a, 0xab, 0x63, 0xbe, 0xc6, 0xd3, 0xa7, 0xbe, 0x62, 0xbd, 0xa1, 0xbd,
  0x20, 0xd2, 0x31, 0x3d, 0x17, 0x13, 0x8b, 0x3d, 0xb8, 0xbb, 0x15, 0x3d,
  0xb5, 0xb1, 0x93, 0xbe, 0xc2, 0xb4, 0x80, 0xbe, 0x60, 0x60, 0xb3, 0xbe,
  0x86, 0xd3, 0x88, 0xbe, 0xd1, 0x8f, 0x85, 0xbe, 0x4b, 0xe0, 0x33, 0x3e,
  0x11, 0xe2, 0xc7, 0xbd, 0x6e, 0x52, 0x1a, 0xbe, 0x67, 0xf1, 0x7c, 0xbe,
  0xbc, 0x2a, 0x2d, 0xbe, 0xbe, 0xa8, 0xd2, 0x3d, 0xc9, 0x8b, 0x2d, 0xbe,
  0xcd, 0xc8, 0xf7, 0x3e, 0x07, 0x84, 0x9a, 0xbe, 0x93, 0x4a, 0x92, 0x3d,
  0xa1, 0x7f, 0xa4, 0xbd, 0x4a, 0x93, 0x48, 0x3e, 0x71, 0xe9, 0xa3, 0x3e,
  0x92, 0xd5, 0x78, 0xbe, 0xa0, 0x55, 0x54, 0x3d, 0x80, 0x70, 0xc4, 0xbd,
  0xf0, 0x7f, 0x13, 0xbd, 0xb4, 0x46, 0xe4, 0x3d, 0x27, 0x18, 0xe5, 0x3e,
  0xa1, 0x99, 0x5b, 0x3e, 0xf2, 0xe0, 0x57, 0x3e, 0x32, 0xf5, 0x5d, 0x3c,
  0x58, 0xf1, 0x10, 0xbd, 0x48, 0xd1, 0x3c, 0x3e, 0xc0, 0xcb, 0x93, 0x3e,
  0xe6, 0xbc, 0x0a, 0x3e, 0xf5, 0xe0, 0xa2, 0x3e, 0xcf, 0xd6, 0x2f, 0x3d,
  0xb8, 0x9e, 0x68, 0x3d, 0x00, 0xbc, 0x7e, 0x3b, 0x3a, 0x46, 0xe0, 0xbd,
  0xe6, 0xe1, 0x63, 0xbe, 0x3f, 0x3b, 0xd4, 0x3e, 0x14, 0xf2, 0xbe, 0x3d,
  0xd4, 0xe3, 0xab, 0xbe, 0xeb, 0x80, 0xae, 0x3e, 0x80, 0xed, 0x38, 0x3c,
  0x5b, 0x1b, 0x8b, 0xbe, 0x3c, 0xd3, 0xcc, 0xbd, 0xa6, 0xdb, 0x3e, 0x3e,
  0x3c, 0x33, 0x99, 0xbe, 0xa4, 0x69, 0xc6, 0xbd, 0x87, 0x25, 0x3c, 0xbe,
  0xde, 0xc3, 0x25, 0x3e, 0xb9, 0x1b, 0x26, 0xbe, 0xae, 0x4c, 0x33, 0x3e,
  0x11, 0xa7, 0xa6, 0x3e, 0x08, 0x47, 0xcb, 0x3d, 0x1e, 0x95, 0x23, 0x3e,
  0x22, 0x5b, 0x1c, 0x3e, 0xb2, 0x0e, 0x36, 0x3e, 0x3c, 0x89, 0x9e, 0xbe,
  0x14, 0x39, 0xa8, 0xbe, 0xc6, 0x51, 0x5d, 0x3e, 0x2d, 0x0b, 0x85, 0x3e,
  0x80, 0x64, 0xfd, 0x3b, 0x3f, 0x2b, 0x7c, 0xbe, 0x45, 0x51, 0x57, 0xbe,
  0x5b, 0xc3, 0x9b, 0x3e, 0x8e, 0x61, 0x53, 0x3e, 0x00, 0x04, 0xb5, 0xbe,
  0xd0, 0x60, 0xe4, 0xbc, 0xf2, 0xc7, 0x27, 0x3e, 0x2c, 0x16, 0x51, 0xbe,
  0xd8, 0x75, 0xaa, 0xbe, 0xd5, 0xf8, 0x79, 0xbe, 0xdc, 0xb6, 0xd1, 0x3d,
  0xf3, 0xa7, 0x11, 0xbe, 0x50, 0xca, 0xc5, 0xbc, 0xf4, 0x70, 0x9f, 0xbe,
  0x01, 0x0e, 0x8a, 0xbe, 0xae, 0x93, 0x42, 0x3d, 0x00, 0x79, 0x3e, 0x3c,
  0x76, 0x5f, 0x91, 0x3e, 0x73, 0x53, 0x91, 0x3d, 0x9a, 0x7f, 0x43, 0xbe,
  0x35, 0x46, 0x8c, 0xbe, 0xc8, 0x87, 0x10, 0xbe, 0xc9, 0xfa, 0x4d, 0xbd,
  0x08, 0x33, 0x11, 0x3e, 0x08, 0x16, 0x71, 0x3d, 0xd9, 0x7f, 0xb4, 0x3e,
  0xaf, 0xe4, 0x83, 0x3c, 0xa7, 0x29, 0x93, 0xbe, 0x1f, 0xa6, 0x47, 0xbe,
  0x47, 0xc9, 0x99, 0x3e, 0x44, 0xf3, 0xfd, 0x3d, 0xf2, 0x33, 0x43, 0x3e,
  0x93, 0x27, 0x1d, 0xbe, 0x47, 0xd9, 0xa9, 0xbe, 0xbb, 0x5c, 0x85, 0x3e,
  0x93, 0x76, 0xa2, 0x3e, 0x5b, 0xcb, 0x62, 0xbe, 0xe3, 0x32, 0x9c, 0xbe,
  0x7f, 0x16, 0x88, 0xbe, 0xf0, 0xa6, 0xe7, 0xbc, 0xbe, 0x7f, 0x9e, 0x3d,
  0x56, 0xb1, 0xf5, 0x3d, 0x20, 0xea, 0xda, 0xbc, 0x41, 0xc5, 0x9d, 0xbe,
  0x2e, 0xfc, 0x45, 0x3e, 0x2e, 0x17, 0xab, 0x3e, 0x14, 0xb1, 0xe4, 0x3d,
  0x18, 0xc1, 0xd1, 0xbe, 0x89, 0x80, 0x90, 0xbe, 0xd9, 0x38, 0x95, 0x3e,
  0xce, 0x0c, 0x8f, 0xbe, 0x87, 0x4a, 0x9f, 0xbe, 0xdc, 0x7a, 0x03, 0x3e,
  0x98, 0xde, 0xf6, 0x3d, 0xd8, 0x2d, 0x05, 0x3d, 0x83, 0x7d, 0xa6, 0xbe,
  0x46, 0x79, 0x92, 0xbe, 0x5c, 0xcb, 0xcb, 0xbd, 0x56, 0xa6, 0x3e, 0x3d,
  0x79, 0x7c, 0xb1, 0xbe, 0x68, 0xeb, 0xe3, 0x3d, 0x68, 0xc2, 0xe7, 0xbe,
  0x8c, 0xc9, 0x39, 0xbe, 0xa6, 0x2c, 0x05, 0x3e, 0x2f, 0xff, 0x89, 0x3e,
  0x63, 0xcd, 0x5f, 0xbe, 0x58, 0x3b, 0x12, 0x3e, 0x97, 0xd7, 0xb1, 0xbe,
  0x07, 0x2a, 0x21, 0xbf, 0xb4, 0x9b, 0xe2, 0xbd, 0x54, 0xc9, 0x1f, 0x3e,
  0x00, 0x0c, 0x81, 0xbc, 0x11, 0xf1, 0xd8, 0xbe, 0xfe, 0xec, 0xc2, 0x3d,
  0xe6, 0x0b, 0xaf, 0xbe, 0x72, 0x22, 0x6b, 0x3e, 0xf7, 0xaa, 0xa8, 0x3e,
  0x64, 0x09, 0x86, 0x3e, 0x3c, 0x99, 0x91, 0xbe, 0xdc, 0x83, 0x58, 0xbe,
  0xa0, 0x88, 0x6e, 0xbc, 0xbb, 0xfa, 0x1f, 0x3e, 0x4e, 0x55, 0x73, 0xbe,
  0x36, 0x40, 0x3a, 0xbe, 0x8c, 0xa7, 0xa3, 0xbe, 0xcd, 0x2a, 0x9c, 0xbe,
  0xd7, 0xc1, 0xaf, 0x3e, 0x2b, 0x8b, 0x8a, 0x3e, 0x94, 0xfa, 0x68, 0xbe,
  0x60, 0x4c, 0x01, 0x3c, 0x5b, 0x22, 0xaa, 0x3e, 0x60, 0x00, 0x8f, 0x3d,
  0xec, 0x49, 0x94, 0xbe, 0x9e, 0x49, 0x30, 0xbe, 0x90, 0xaa, 0xaa, 0x3c,
  0x85, 0x1e, 0x8a, 0xbe, 0x3c, 0x15, 0x28, 0xbe, 0x2f, 0x34, 0xe9, 0xbc,
  0xd1, 0x3e, 0x8c, 0xbe, 0x88, 0x62, 0x87, 0xbd, 0xc8, 0x2d, 0x03, 0x3e,
  0xb1, 0x35, 0xa1, 0xbe, 0x72, 0x3a, 0x7c, 0xbe, 0x84, 0x19, 0x75, 0xbe,
  0xdc, 0x41, 0xfa, 0xbd, 0x05, 0x4e, 0xa9, 0xbe, 0x70, 0x1d, 0x88, 0xbe,
  0x60, 0xd8, 0xa7, 0xbc, 0xb6, 0x53, 0x55, 0xbe, 0x0e, 0xd2, 0x07, 0xbe,
  0xb6, 0x7f, 0x3a, 0x3e, 0xc0, 0xa4, 0x3c, 0x3d, 0x90, 0xe1, 0x2f, 0xbd,
  0xff, 0x37, 0x8c, 0x3e, 0xa1, 0xcf, 0x23, 0xbe, 0x1c, 0x70, 0xaf, 0x3d,
  0x4c, 0x4a, 0xef, 0x3d, 0x98, 0x3c, 0x1f, 0xbe, 0x52, 0x8e, 0x19, 0x3e,
  0xfa, 0x62, 0x3d, 0x3e, 0xb5, 0x14, 0xa4, 0x3e, 0x60, 0xca, 0x5d, 0xbe,
  0xed, 0xb9, 0x99, 0x3e, 0xc0, 0xdb, 0x08, 0x3c, 0x00, 0xb1, 0x9b, 0xbd,
  0xac, 0xb9, 0x91, 0xbe, 0xe1, 0xf4, 0x1c, 0xbe, 0x21, 0xb2, 0xb0, 0xbe,
  0x83, 0xe1, 0x00, 0xbe, 0xcd, 0x06, 0x1d, 0xbe, 0x48, 0x56, 0x1e, 0xbd,
  0xc8, 0x5e, 0xb9, 0x3d, 0x9c, 0x08, 0xd1, 0x3d, 0x12, 0x36, 0x36, 0x3e,
  0xe4, 0x00, 0x66, 0xbe, 0x92, 0x55, 0x6a, 0xbe, 0xe0, 0x72, 0x2c, 0x3d,
  0x43, 0x3b, 0x9e, 0xbe, 0xa7, 0x05, 0x86, 0x3e, 0x82, 0x73, 0xc6, 0x3c,
  0xf8, 0x18, 0x87, 0xbe, 0xbb, 0x2b, 0x0f, 0x3e, 0xa5, 0xe1, 0x8b, 0xbe,
  0x19, 0x82, 0x9a, 0x3e, 0x9e, 0xac, 0x37, 0x3e, 0x9f, 0x96, 0x75, 0x3d,
  0xbc, 0x29, 0x80, 0xbe, 0x0e, 0xf4, 0x3b, 0x3e, 0xd0, 0x93, 0xe7, 0x3c,
  0xff, 0xd6, 0x50, 0xbe, 0xb1, 0x2d, 0x01, 0x3f, 0xbd, 0xc9, 0x8e, 0x3e,
  0xcb, 0x08, 0x4a, 0xbe, 0xf6, 0x03, 0x2f, 0x3e, 0xf0, 0x5e, 0xb3, 0x3d,
  0x37, 0xe4, 0x28, 0x3d, 0xb1, 0xc5, 0xa6, 0x3e, 0xae, 0x99, 0xbb, 0x3e,
  0x84, 0x4c, 0x94, 0xbd, 0xae, 0x02, 0xf4, 0x3e, 0xe4, 0xc3, 0xba, 0x3e,
  0x61, 0x15, 0xf7, 0x3e, 0xb9, 0x95, 0xe1, 0x3e, 0x7c, 0x09, 0xb1, 0xbe,
  0xb8, 0x8c, 0x10, 0x3e, 0xf8, 0x34, 0xaa, 0xbe, 0x03, 0x4b, 0x88, 0x3e,
  0xd0, 0x35, 0xa5, 0xbc, 0x97, 0xd7, 0x76, 0xbd, 0xc1, 0xb1, 0xad, 0x3e,
  0x07, 0x74, 0x21, 0xbe, 0x38, 0x04, 0x61, 0x3e, 0x37, 0x33, 0x3a, 0xbe,
  0xd9, 0x68, 0x41, 0xbe, 0x34, 0x0b, 0xbe, 0xbd, 0xd3, 0xfb, 0x22, 0xbd,
  0x94, 0x66, 0xad, 0x3d, 0x66, 0x85, 0xa2, 0xbd, 0x5d, 0xc8, 0x48, 0x3d,
  0x58, 0xbb, 0x40, 0x3d, 0x7b, 0xaa, 0x82, 0x3e, 0x22, 0x1e, 0x4f, 0x3e,
  0x76, 0x03, 0x86, 0x3e, 0xce, 0x2e, 0x5d, 0x3e, 0x98, 0x2f, 0x7e, 0x3d,
  0xf8, 0x8c, 0x3c, 0x3d, 0x8e, 0x7b, 0x72, 0x3e, 0xf3, 0x5a, 0x92, 0x3d,
  0x63, 0xe1, 0xa2, 0x3e, 0xa0, 0xf4, 0x30, 0xbd, 0x4c, 0xa1, 0x90, 0x3d,
  0x31, 0xde, 0x2b, 0x3e, 0x93, 0x80, 0x87, 0xbe, 0x5d, 0xea, 0x85, 0xbe,
  0x4f, 0x31, 0x8d, 0xbe, 0x57, 0xc7, 0x54, 0xbe, 0x24, 0x27, 0x5b, 0x3e,
  0x04, 0xa5, 0x95, 0x3d, 0x0f, 0xbb, 0x12, 0xbe, 0x0a, 0x77, 0xae, 0xbe,
  0x9a, 0xd5, 0x2f, 0xbe, 0xa8, 0x37, 0x94, 0x3e, 0x8a, 0x15, 0x7d, 0x3e,
  0x00, 0x00, 0x06, 0x00, 0x08, 0x00, 0x04, 0x00, 0x06, 0x00, 0x00, 0x00,
  0x04, 0x00, 0x00, 0x00, 0x80, 0x00, 0x00, 0x00, 0x50, 0x15, 0xd3, 0x3d,
  0x31, 0x1e, 0x6f, 0x3f, 0x12, 0xce, 0xce, 0x3e, 0x95, 0x96, 0x3c, 0xbe,
  0xd6, 0x46, 0x5e, 0xbd, 0x2f, 0x5e, 0x70, 0x3f, 0x46, 0xbe, 0xd2, 0x3e,
  0x1b, 0x71, 0x04, 0xbe, 0xc3, 0xa9, 0x04, 0xbf, 0x84, 0x21, 0xa3, 0x3e,
  0xc1, 0xd3, 0x87, 0xbd, 0x9e, 0xee, 0x70, 0x3f, 0xfb, 0x46, 0xa3, 0xbd,
  0xe6, 0x2a, 0x0e, 0x3f, 0xaf, 0x9f, 0x33, 0xbf, 0x55, 0x72, 0x46, 0x3e,
  0x35, 0x6a, 0x0d, 0xbf, 0xc6, 0x50, 0x88, 0x3d, 0x11, 0x8d, 0x52, 0xbe,
  0x29, 0x4d, 0x66, 0x3e, 0xda, 0x22, 0xca, 0xbe, 0xc4, 0x20, 0xcc, 0xbe,
  0xf4, 0xf8, 0x38, 0x3f, 0xfa, 0x30, 0xaa, 0xbe, 0x93, 0x74, 0x4e, 0x3e,
  0x7e, 0x61, 0xa7, 0xbe, 0x4f, 0x88, 0xde, 0xbd, 0x09, 0x65, 0x82, 0xbe,
  0xb7, 0xa3, 0x09, 0x3f, 0x56, 0x2a, 0xd6, 0x3e, 0x6c, 0x14, 0x3d, 0x3f,
  0x88, 0xb3, 0x49, 0xbe, 0x24, 0xfb, 0xff, 0xff, 0x28, 0xfb, 0xff, 0xff,
  0x0f, 0x00, 0x00, 0x00, 0x4d, 0x4c, 0x49, 0x52, 0x20, 0x43, 0x6f, 0x6e,
  0x76, 0x65, 0x72, 0x74, 0x65, 0x64, 0x2e, 0x00, 0x01, 0x00, 0x00, 0x00,
  0x14, 0x00, 0x00, 0x00, 0x00, 0x00, 0x0e, 0x00, 0x18, 0x00, 0x14, 0x00,
  0x10, 0x00, 0x0c, 0x00, 0x08, 0x00, 0x04, 0x00, 0x0e, 0x00, 0x00, 0x00,
  0x14, 0x00, 0x00, 0x00, 0x1c, 0x00, 0x00, 0x00, 0xd8, 0x00, 0x00, 0x00,
  0xdc, 0x00, 0x00, 0x00, 0xe0, 0x00, 0x00, 0x00, 0x04, 0x00, 0x00, 0x00,
  0x6d, 0x61, 0x69, 0x6e, 0x00, 0x00, 0x00, 0x00, 0x03, 0x00, 0x00, 0x00,
  0x80, 0x00, 0x00, 0x00, 0x38, 0x00, 0x00, 0x00, 0x04, 0x00, 0x00, 0x00,
  0x9a, 0xff, 0xff, 0xff, 0x10, 0x00, 0x00, 0x00, 0x00, 0x00, 0x00, 0x08,
  0x0c, 0x00, 0x00, 0x00, 0x10, 0x00, 0x00, 0x00, 0xa0, 0xfb, 0xff, 0xff,
  0x01, 0x00, 0x00, 0x00, 0x09, 0x00, 0x00, 0x00, 0x03, 0x00, 0x00, 0x00,
  0x08, 0x00, 0x00, 0x00, 0x01, 0x00, 0x00, 0x00, 0x05, 0x00, 0x00, 0x00,
  0xca, 0xff, 0xff, 0xff, 0x10, 0x00, 0x00, 0x00, 0x00, 0x00, 0x00, 0x08,
  0x10, 0x00, 0x00, 0x00, 0x14, 0x00, 0x00, 0x00, 0xba, 0xff, 0xff, 0xff,
  0x00, 0x00, 0x00, 0x01, 0x01, 0x00, 0x00, 0x00, 0x08, 0x00, 0x00, 0x00,
  0x03, 0x00, 0x00, 0x00, 0x07, 0x00, 0x00, 0x00, 0x02, 0x00, 0x00, 0x00,
  0x03, 0x00, 0x00, 0x00, 0x00, 0x00, 0x0e, 0x00, 0x16, 0x00, 0x00, 0x00,
  0x10, 0x00, 0x0c, 0x00, 0x0b, 0x00, 0x04, 0x00, 0x0e, 0x00, 0x00, 0x00,
  0x18, 0x00, 0x00, 0x00, 0x00, 0x00, 0x00, 0x08, 0x18, 0x00, 0x00, 0x00,
  0x1c, 0x00, 0x00, 0x00, 0x00, 0x00, 0x06, 0x00, 0x08, 0x00, 0x07, 0x00,
  0x06, 0x00, 0x00, 0x00, 0x00, 0x00, 0x00, 0x01, 0x01, 0x00, 0x00, 0x00,
  0x07, 0x00, 0x00, 0x00, 0x03, 0x00, 0x00, 0x00, 0x00, 0x00, 0x00, 0x00,
  0x06, 0x00, 0x00, 0x00, 0x04, 0x00, 0x00, 0x00, 0x01, 0x00, 0x00, 0x00,
  0x09, 0x00, 0x00, 0x00, 0x01, 0x00, 0x00, 0x00, 0x00, 0x00, 0x00, 0x00,
  0x0a, 0x00, 0x00, 0x00, 0x88, 0x03, 0x00, 0x00, 0x30, 0x03, 0x00, 0x00,
  0xd8, 0x02, 0x00, 0x00, 0x80, 0x02, 0x00, 0x00, 0x28, 0x02, 0x00, 0x00,
  0xc8, 0x01, 0x00, 0x00, 0x7c, 0x01, 0x00, 0x00, 0xf0, 0x00, 0x00, 0x00,
  0x60, 0x00, 0x00, 0x00, 0x04, 0x00, 0x00, 0x00, 0xb6, 0xfc, 0xff, 0xff,
  0x00, 0x00, 0x00, 0x01, 0x14, 0x00, 0x00, 0x00, 0x1c, 0x00, 0x00, 0x00,
  0x1c, 0x00, 0x00, 0x00, 0x0a, 0x00, 0x00, 0x00, 0x34, 0x00, 0x00, 0x00,
  0x02, 0x00, 0x00, 0x00, 0xff, 0xff, 0xff, 0xff, 0x02, 0x00, 0x00, 0x00,
  0xa0, 0xfc, 0xff, 0xff, 0x1b, 0x00, 0x00, 0x00, 0x53, 0x74, 0x61, 0x74,
  0x65, 0x66, 0x75, 0x6c, 0x50, 0x61, 0x72, 0x74, 0x69, 0x74, 0x69, 0x6f,
  0x6e, 0x65, 0x64, 0x43, 0x61, 0x6c, 0x6c, 0x5f, 0x31, 0x3a, 0x30, 0x00,
  0x02, 0x00, 0x00, 0x00, 0x01, 0x00, 0x00, 0x00, 0x02, 0x00, 0x00, 0x00,
  0x0e, 0xfd, 0xff, 0xff, 0x00, 0x00, 0x00, 0x01, 0x14, 0x00, 0x00, 0x00,
  0x1c, 0x00, 0x00, 0x00, 0x1c, 0x00, 0x00, 0x00, 0x09, 0x00, 0x00, 0x00,
  0x68, 0x00, 0x00, 0x00, 0x02, 0x00, 0x00, 0x00, 0xff, 0xff, 0xff, 0xff,
  0x10, 0x00, 0x00, 0x00, 0xf8, 0xfc, 0xff, 0xff, 0x4f, 0x00, 0x00, 0x00,
  0x65, 0x6e, 0x63, 0x6f, 0x64, 0x65, 0x72, 0x5f, 0x31, 0x2f, 0x64, 0x65,
  0x6e, 0x73, 0x65, 0x5f, 0x31, 0x5f, 0x32, 0x2f, 0x4d, 0x61, 0x74, 0x4d,
  0x75, 0x6c, 0x3b, 0x65, 0x6e, 0x63, 0x6f, 0x64, 0x65, 0x72, 0x5f, 0x31,
  0x2f, 0x64, 0x65, 0x6e, 0x73, 0x65, 0x5f, 0x31, 0x5f, 0x32, 0x2f, 0x52,
  0x65, 0x6c, 0x75, 0x3b, 0x65, 0x6e, 0x63, 0x6f, 0x64, 0x65, 0x72, 0x5f,
  0x31, 0x2f, 0x64, 0x65, 0x6e, 0x73, 0x65, 0x5f, 0x31, 0x5f, 0x32, 0x2f,
  0x42, 0x69, 0x61, 0x73, 0x41, 0x64, 0x64, 0x00, 0x02, 0x00, 0x00, 0x00,
  0x01, 0x00, 0x00, 0x00, 0x10, 0x00, 0x00, 0x00, 0x9a, 0xfd, 0xff, 0xff,
  0x00, 0x00, 0x00, 0x01, 0x14, 0x00, 0x00, 0x00, 0x1c, 0x00, 0x00, 0x00,
  0x1c, 0x00, 0x00, 0x00, 0x08, 0x00, 0x00, 0x00, 0x64, 0x00, 0x00, 0x00,
  0x02, 0x00, 0x00, 0x00, 0xff, 0xff, 0xff, 0xff, 0x20, 0x00, 0x00, 0x00,
  0x84, 0xfd, 0xff, 0xff, 0x49, 0x00, 0x00, 0x00, 0x65, 0x6e, 0x63, 0x6f,
  0x64, 0x65, 0x72, 0x5f, 0x31, 0x2f, 0x64, 0x65, 0x6e, 0x73, 0x65, 0x5f,
  0x31, 0x2f, 0x4d, 0x61, 0x74, 0x4d, 0x75, 0x6c, 0x3b, 0x65, 0x6e, 0x63,
  0x6f, 0x64, 0x65, 0x72, 0x5f, 0x31, 0x2f, 0x64, 0x65, 0x6e, 0x73, 0x65,
  0x5f, 0x31, 0x2f, 0x52, 0x65, 0x6c, 0x75, 0x3b, 0x65, 0x6e, 0x63, 0x6f,
  0x64, 0x65, 0x72, 0x5f, 0x31, 0x2f, 0x64, 0x65, 0x6e, 0x73, 0x65, 0x5f,
  0x31, 0x2f, 0x42, 0x69, 0x61, 0x73, 0x41, 0x64, 0x64, 0x00, 0x00, 0x00,
  0x02, 0x00, 0x00, 0x00, 0x01, 0x00, 0x00, 0x00, 0x20, 0x00, 0x00, 0x00,
  0x76, 0xfe, 0xff, 0xff, 0x00, 0x00, 0x00, 0x01, 0x10, 0x00, 0x00, 0x00,
  0x10, 0x00, 0x00, 0x00, 0x07, 0x00, 0x00, 0x00, 0x28, 0x00, 0x00, 0x00,
  0xfc, 0xfd, 0xff, 0xff, 0x18, 0x00, 0x00, 0x00, 0x65, 0x6e, 0x63, 0x6f,
  0x64, 0x65, 0x72, 0x5f, 0x31, 0x2f, 0x64, 0x65, 0x6e, 0x73, 0x65, 0x5f,
  0x31, 0x2f, 0x4d, 0x61, 0x74, 0x4d, 0x75, 0x6c, 0x00, 0x00, 0x00, 0x00,
  0x02, 0x00, 0x00, 0x00, 0x20, 0x00, 0x00, 0x00, 0x01, 0x00, 0x00, 0x00,
  0xbe, 0xfe, 0xff, 0xff, 0x00, 0x00, 0x00, 0x01, 0x10, 0x00, 0x00, 0x00,
  0x10, 0x00, 0x00, 0x00, 0x06, 0x00, 0x00, 0x00, 0x40, 0x00, 0x00, 0x00,
  0x44, 0xfe, 0xff, 0xff, 0x31, 0x00, 0x00, 0x00, 0x65, 0x6e, 0x63, 0x6f,
  0x64, 0x65, 0x72, 0x5f, 0x31, 0x2f, 0x65, 0x6e, 0x63, 0x6f, 0x64, 0x65,
  0x72, 0x5f, 0x6f, 0x75, 0x74, 0x70, 0x75, 0x74, 0x5f, 0x31, 0x2f, 0x42,
  0x69, 0x61, 0x73, 0x41, 0x64, 0x64, 0x2f, 0x52, 0x65, 0x61, 0x64, 0x56,
  0x61, 0x72, 0x69, 0x61, 0x62, 0x6c, 0x65, 0x4f, 0x70, 0x00, 0x00, 0x00,
  0x01, 0x00, 0x00, 0x00, 0x02, 0x00, 0x00, 0x00, 0x1a, 0xff, 0xff, 0xff,
  0x00, 0x00, 0x00, 0x01, 0x10, 0x00, 0x00, 0x00, 0x10, 0x00, 0x00, 0x00,
  0x05, 0x00, 0x00, 0x00, 0x38, 0x00, 0x00, 0x00, 0xa0, 0xfe, 0xff, 0xff,
  0x28, 0x00, 0x00, 0x00, 0x65, 0x6e, 0x63, 0x6f, 0x64, 0x65, 0x72, 0x5f,
  0x31, 0x2f, 0x64, 0x65, 0x6e, 0x73, 0x65, 0x5f, 0x31, 0x2f, 0x42, 0x69,
  0x61, 0x73, 0x41, 0x64, 0x64, 0x2f, 0x52, 0x65, 0x61, 0x64, 0x56, 0x61,
  0x72, 0x69, 0x61, 0x62, 0x6c, 0x65, 0x4f, 0x70, 0x00, 0x00, 0x00, 0x00,
  0x01, 0x00, 0x00, 0x00, 0x20, 0x00, 0x00, 0x00, 0x6e, 0xff, 0xff, 0xff,
  0x00, 0x00, 0x00, 0x01, 0x10, 0x00, 0x00, 0x00, 0x10, 0x00, 0x00, 0x00,
  0x04, 0x00, 0x00, 0x00, 0x38, 0x00, 0x00, 0x00, 0xf4, 0xfe, 0xff, 0xff,
  0x2a, 0x00, 0x00, 0x00, 0x65, 0x6e, 0x63, 0x6f, 0x64, 0x65, 0x72, 0x5f,
  0x31, 0x2f, 0x64, 0x65, 0x6e, 0x73, 0x65, 0x5f, 0x31, 0x5f, 0x32, 0x2f,
  0x42, 0x69, 0x61, 0x73, 0x41, 0x64, 0x64, 0x2f, 0x52, 0x65, 0x61, 0x64,
  0x56, 0x61, 0x72, 0x69, 0x61, 0x62, 0x6c, 0x65, 0x4f, 0x70, 0x00, 0x00,
  0x01, 0x00, 0x00, 0x00, 0x10, 0x00, 0x00, 0x00, 0xc2, 0xff, 0xff, 0xff,
  0x00, 0x00, 0x00, 0x01, 0x10, 0x00, 0x00, 0x00, 0x10, 0x00, 0x00, 0x00,
  0x03, 0x00, 0x00, 0x00, 0x1c, 0x00, 0x00, 0x00, 0x48, 0xff, 0xff, 0xff,
  0x0f, 0x00, 0x00, 0x00, 0x61, 0x72, 0x69, 0x74, 0x68, 0x2e, 0x63, 0x6f,
  0x6e, 0x73, 0x74, 0x61, 0x6e, 0x74, 0x31, 0x00, 0x02, 0x00, 0x00, 0x00,
  0x10, 0x00, 0x00, 0x00, 0x20, 0x00, 0x00, 0x00, 0x00, 0x00, 0x16, 0x00,
  0x18, 0x00, 0x14, 0x00, 0x00, 0x00, 0x10, 0x00, 0x0c, 0x00, 0x08, 0x00,
  0x00, 0x00, 0x00, 0x00, 0x00, 0x00, 0x07, 0x00, 0x16, 0x00, 0x00, 0x00,
  0x00, 0x00, 0x00, 0x01, 0x10, 0x00, 0x00, 0x00, 0x10, 0x00, 0x00, 0x00,
  0x02, 0x00, 0x00, 0x00, 0x1c, 0x00, 0x00, 0x00, 0x9c, 0xff, 0xff, 0xff,
  0x0e, 0x00, 0x00, 0x00, 0x61, 0x72, 0x69, 0x74, 0x68, 0x2e, 0x63, 0x6f,
  0x6e, 0x73, 0x74, 0x61, 0x6e, 0x74, 0x00, 0x00, 0x02, 0x00, 0x00, 0x00,
  0x02, 0x00, 0x00, 0x00, 0x10, 0x00, 0x00, 0x00, 0x00, 0x00, 0x16, 0x00,
  0x1c, 0x00, 0x18, 0x00, 0x00, 0x00, 0x14, 0x00, 0x10, 0x00, 0x0c, 0x00,
  0x00, 0x00, 0x00, 0x00, 0x08, 0x00, 0x07, 0x00, 0x16, 0x00, 0x00, 0x00,
  0x00, 0x00, 0x00, 0x01, 0x14, 0x00, 0x00, 0x00, 0x20, 0x00, 0x00, 0x00,
  0x20, 0x00, 0x00, 0x00, 0x01, 0x00, 0x00, 0x00, 0x3c, 0x00, 0x00, 0x00,
  0x02, 0x00, 0x00, 0x00, 0xff, 0xff, 0xff, 0xff, 0x01, 0x00, 0x00, 0x00,
  0x04, 0x00, 0x04, 0x00, 0x04, 0x00, 0x00, 0x00, 0x1f, 0x00, 0x00, 0x00,
  0x73, 0x65, 0x72, 0x76, 0x69, 0x6e, 0x67, 0x5f, 0x64, 0x65, 0x66, 0x61,
  0x75, 0x6c, 0x74, 0x5f, 0x65, 0x6e, 0x63, 0x6f, 0x64, 0x65, 0x72, 0x5f,
  0x69, 0x6e, 0x70, 0x75, 0x74, 0x3a, 0x30, 0x00, 0x02, 0x00, 0x00, 0x00,
  0x01, 0x00, 0x00, 0x00, 0x01, 0x00, 0x00, 0x00, 0x01, 0x00, 0x00, 0x00,
  0x10, 0x00, 0x00, 0x00, 0x0c, 0x00, 0x0c, 0x00, 0x0b, 0x00, 0x00, 0x00,
  0x00, 0x00, 0x04, 0x00, 0x0c, 0x00, 0x00, 0x00, 0x09, 0x00, 0x00, 0x00,
  0x00, 0x00, 0x00, 0x09
};
unsigned int exported_models_tflite_encoder_model_tflite_len = 4408;


#endif // ENCODER_MODEL_DATA_H
