
#ifndef ENCODER_MODEL_DATA_H
#define ENCODER_MODEL_DATA_H

// Auto-generated by xxd. Do not edit manually.
// Model expects scaled input (0 to 1 range)

unsigned char exported_models_tflite_encoder_model_tflite[] = {
  0x1c, 0x00, 0x00, 0x00, 0x54, 0x46, 0x4c, 0x33, 0x14, 0x00, 0x20, 0x00,
  0x1c, 0x00, 0x18, 0x00, 0x14, 0x00, 0x10, 0x00, 0x0c, 0x00, 0x00, 0x00,
  0x08, 0x00, 0x04, 0x00, 0x14, 0x00, 0x00, 0x00, 0x1c, 0x00, 0x00, 0x00,
  0x98, 0x00, 0x00, 0x00, 0xf0, 0x00, 0x00, 0x00, 0x58, 0x07, 0x00, 0x00,
  0x68, 0x07, 0x00, 0x00, 0x50, 0x0c, 0x00, 0x00, 0x03, 0x00, 0x00, 0x00,
  0x01, 0x00, 0x00, 0x00, 0x10, 0x00, 0x00, 0x00, 0x00, 0x00, 0x0a, 0x00,
  0x10, 0x00, 0x0c, 0x00, 0x08, 0x00, 0x04, 0x00, 0x0a, 0x00, 0x00, 0x00,
  0x0c, 0x00, 0x00, 0x00, 0x1c, 0x00, 0x00, 0x00, 0x3c, 0x00, 0x00, 0x00,
  0x0f, 0x00, 0x00, 0x00, 0x73, 0x65, 0x72, 0x76, 0x69, 0x6e, 0x67, 0x5f,
  0x64, 0x65, 0x66, 0x61, 0x75, 0x6c, 0x74, 0x00, 0x01, 0x00, 0x00, 0x00,
  0x04, 0x00, 0x00, 0x00, 0x90, 0xff, 0xff, 0xff, 0x09, 0x00, 0x00, 0x00,
  0x04, 0x00, 0x00, 0x00, 0x08, 0x00, 0x00, 0x00, 0x6f, 0x75, 0x74, 0x70,
  0x75, 0x74, 0x5f, 0x30, 0x00, 0x00, 0x00, 0x00, 0x01, 0x00, 0x00, 0x00,
  0x04, 0x00, 0x00, 0x00, 0xb6, 0xf9, 0xff, 0xff, 0x04, 0x00, 0x00, 0x00,
  0x0d, 0x00, 0x00, 0x00, 0x65, 0x6e, 0x63, 0x6f, 0x64, 0x65, 0x72, 0x5f,
  0x69, 0x6e, 0x70, 0x75, 0x74, 0x00, 0x00, 0x00, 0x02, 0x00, 0x00, 0x00,
  0x34, 0x00, 0x00, 0x00, 0x04, 0x00, 0x00, 0x00, 0xdc, 0xff, 0xff, 0xff,
  0x0c, 0x00, 0x00, 0x00, 0x04, 0x00, 0x00, 0x00, 0x13, 0x00, 0x00, 0x00,
  0x43, 0x4f, 0x4e, 0x56, 0x45, 0x52, 0x53, 0x49, 0x4f, 0x4e, 0x5f, 0x4d,
  0x45, 0x54, 0x41, 0x44, 0x41, 0x54, 0x41, 0x00, 0x08, 0x00, 0x0c, 0x00,
  0x08, 0x00, 0x04, 0x00, 0x08, 0x00, 0x00, 0x00, 0x0b, 0x00, 0x00, 0x00,
  0x04, 0x00, 0x00, 0x00, 0x13, 0x00, 0x00, 0x00, 0x6d, 0x69, 0x6e, 0x5f,
  0x72, 0x75, 0x6e, 0x74, 0x69, 0x6d, 0x65, 0x5f, 0x76, 0x65, 0x72, 0x73,
  0x69, 0x6f, 0x6e, 0x00, 0x0d, 0x00, 0x00, 0x00, 0x64, 0x06, 0x00, 0x00,
  0x5c, 0x06, 0x00, 0x00, 0xcc, 0x05, 0x00, 0x00, 0xb4, 0x01, 0x00, 0x00,
  0x9c, 0x01, 0x00, 0x00, 0x4c, 0x01, 0x00, 0x00, 0xfc, 0x00, 0x00, 0x00,
  0xac, 0x00, 0x00, 0x00, 0xa4, 0x00, 0x00, 0x00, 0x9c, 0x00, 0x00, 0x00,
  0x94, 0x00, 0x00, 0x00, 0x74, 0x00, 0x00, 0x00, 0x04, 0x00, 0x00, 0x00,
  0x66, 0xfa, 0xff, 0xff, 0x04, 0x00, 0x00, 0x00, 0x60, 0x00, 0x00, 0x00,
  0x10, 0x00, 0x00, 0x00, 0x00, 0x00, 0x00, 0x00, 0x08, 0x00, 0x0e, 0x00,
  0x08, 0x00, 0x04, 0x00, 0x08, 0x00, 0x00, 0x00, 0x10, 0x00, 0x00, 0x00,
  0x24, 0x00, 0x00, 0x00, 0x00, 0x00, 0x06, 0x00, 0x08, 0x00, 0x04, 0x00,
  0x06, 0x00, 0x00, 0x00, 0x04, 0x00, 0x00, 0x00, 0x00, 0x00, 0x00, 0x00,
  0x0c, 0x00, 0x18, 0x00, 0x14, 0x00, 0x10, 0x00, 0x0c, 0x00, 0x04, 0x00,
  0x0c, 0x00, 0x00, 0x00, 0x07, 0x0a, 0x31, 0x1c, 0xf9, 0x13, 0x4d, 0x2c,
  0x02, 0x00, 0x00, 0x00, 0x02, 0x00, 0x00, 0x00, 0x04, 0x00, 0x00, 0x00,
  0x06, 0x00, 0x00, 0x00, 0x32, 0x2e, 0x31, 0x39, 0x2e, 0x30, 0x00, 0x00,
  0xd2, 0xfa, 0xff, 0xff, 0x04, 0x00, 0x00, 0x00, 0x10, 0x00, 0x00, 0x00,
  0x31, 0x2e, 0x35, 0x2e, 0x30, 0x00, 0x00, 0x00, 0x00, 0x00, 0x00, 0x00,
  0x00, 0x00, 0x00, 0x00, 0x8c, 0xf5, 0xff, 0xff, 0x90, 0xf5, 0xff, 0xff,
  0x94, 0xf5, 0xff, 0xff, 0xfa, 0xfa, 0xff, 0xff, 0x04, 0x00, 0x00, 0x00,
  0x40, 0x00, 0x00, 0x00, 0x5d, 0x0e, 0xa4, 0x3e, 0xdc, 0xe7, 0x29, 0xbe,
  0x56, 0xe0, 0x24, 0x3f, 0xec, 0xef, 0xf3, 0xbd, 0x6c, 0xa7, 0xf4, 0xbd,
  0x5d, 0x05, 0x99, 0x3e, 0x9a, 0xde, 0x1a, 0x3f, 0xad, 0xc5, 0x80, 0x3e,
  0x42, 0x2e, 0x20, 0xbe, 0xae, 0x3a, 0x30, 0x3f, 0xb9, 0x4c, 0xe0, 0x3e,
  0xb0, 0xab, 0x0c, 0xbd, 0xd5, 0x96, 0x21, 0x3e, 0xf6, 0xac, 0x1c, 0xbe,
  0x48, 0xe3, 0x70, 0xbe, 0x9c, 0x0a, 0x8d, 0x3e, 0x46, 0xfb, 0xff, 0xff,
  0x04, 0x00, 0x00, 0x00, 0x40, 0x00, 0x00, 0x00, 0xa9, 0xc8, 0x03, 0x3e,
  0x00, 0x00, 0x00, 0x00, 0x65, 0x52, 0x8d, 0x39, 0x00, 0x00, 0x00, 0x00,
  0x00, 0x00, 0x00, 0x00, 0x29, 0x49, 0x91, 0x39, 0xa2, 0xc3, 0xca, 0xbd,
  0xc7, 0x12, 0x87, 0x39, 0x00, 0x00, 0x00, 0x00, 0x89, 0xf9, 0xa0, 0x39,
  0xd0, 0x67, 0x64, 0x3e, 0x00, 0x00, 0x00, 0x00, 0x69, 0x34, 0xb0, 0x3d,
  0x00, 0x00, 0x00, 0x00, 0x00, 0x00, 0x00, 0x00, 0x2b, 0xc5, 0xcc, 0x3c,
  0x92, 0xfb, 0xff, 0xff, 0x04, 0x00, 0x00, 0x00, 0x40, 0x00, 0x00, 0x00,
  0x3d, 0xfd, 0x07, 0xbc, 0xe6, 0x87, 0x1b, 0x3e, 0x01, 0xe1, 0xcb, 0x3d,
  0xa7, 0xf8, 0x0e, 0xbd, 0x96, 0x82, 0xe8, 0xbe, 0x2a, 0x66, 0x22, 0x3e,
  0xea, 0xb1, 0x39, 0x3e, 0x2a, 0x62, 0x0e, 0x3e, 0x00, 0x00, 0x00, 0x00,
  0x00, 0x00, 0x00, 0x00, 0x00, 0x00, 0x00, 0x00, 0x79, 0x90, 0xb5, 0xbb,
  0x67, 0xf4, 0x04, 0x3e, 0xfc, 0x7e, 0xb9, 0xba, 0x13, 0xd6, 0xe3, 0x3d,
  0xe2, 0x71, 0x06, 0x3e, 0xde, 0xfb, 0xff, 0xff, 0x04, 0x00, 0x00, 0x00,
  0x08, 0x00, 0x00, 0x00, 0x5f, 0xdb, 0xb7, 0x3d, 0x67, 0x98, 0x17, 0xbe,
  0xf2, 0xfb, 0xff, 0xff, 0x04, 0x00, 0x00, 0x00, 0x00, 0x04, 0x00, 0x00,
  0x00, 0xed, 0xb7, 0xbe, 0x7d, 0x3d, 0xab, 0x3e, 0x55, 0x4c, 0xc0, 0x3d,
  0xa4, 0x69, 0xa1, 0x3d, 0xc7, 0x7d, 0x99, 0x3e, 0x5a, 0x9a, 0x9d, 0x3e,
  0xd2, 0x40, 0x59, 0x3d, 0x38, 0xb7, 0xb0, 0xbe, 0x96, 0x1e, 0x47, 0x3e,
  0x77, 0xf7, 0x67, 0x3e, 0xeb, 0x90, 0x42, 0xbc, 0x68, 0xe9, 0x2d, 0xbd,
  0xf5, 0xec, 0x3a, 0xbe, 0xb0, 0x02, 0x44, 0x3d, 0xb3, 0x1d, 0xaa, 0x3e,
  0x45, 0x85, 0x55, 0xbe, 0x85, 0x2a, 0x42, 0x3d, 0x0b, 0xdf, 0x9b, 0x3e,
  0xcf, 0xe0, 0x95, 0xbe, 0x88, 0x1a, 0xa8, 0xbe, 0x5d, 0x32, 0xab, 0x3e,
  0xe2, 0x53, 0x7e, 0xbe, 0xe9, 0xb8, 0x43, 0x3f, 0xa6, 0x84, 0xdd, 0xbd,
  0xfa, 0x95, 0x3a, 0x3e, 0xe4, 0x82, 0x1b, 0xbe, 0x5b, 0x02, 0x63, 0x3e,
  0x81, 0x91, 0xb5, 0x3e, 0x69, 0x2a, 0x7d, 0x3e, 0x05, 0xf6, 0xb0, 0xbe,
  0xfa, 0x2b, 0x71, 0xbe, 0xcb, 0x66, 0x72, 0xbe, 0x7f, 0xed, 0x0c, 0x3f,
  0x1c, 0x45, 0xcf, 0x3d, 0xac, 0x45, 0xac, 0x3d, 0xa1, 0x9f, 0x8b, 0xbe,
  0x3d, 0x4b, 0x71, 0xbe, 0x64, 0xc4, 0xc6, 0x3e, 0xbe, 0xfd, 0xcb, 0xbe,
  0x21, 0xba, 0xe7, 0xbd, 0x7d, 0x41, 0xd4, 0x3e, 0xb2, 0x90, 0xa4, 0x3e,
  0xda, 0xde, 0x9c, 0x3d, 0xa1, 0xfb, 0x6b, 0xbe, 0xd7, 0xc6, 0x39, 0xbe,
  0x41, 0xa3, 0xb4, 0x3e, 0x95, 0xbb, 0x83, 0x3e, 0xc0, 0x58, 0x8e, 0xbd,
  0xdc, 0xab, 0x97, 0x3e, 0x2e, 0x73, 0x20, 0xbe, 0x0c, 0xc9, 0xd9, 0x3d,
  0xbd, 0xa9, 0x8b, 0x3e, 0x70, 0x99, 0x47, 0x3d, 0x1c, 0xcc, 0xbe, 0x3e,
  0x0b, 0x58, 0x36, 0xbf, 0xa8, 0x6e, 0x00, 0x3f, 0x30, 0xc7, 0xed, 0xbc,
  0x15, 0xf3, 0xe5, 0x3e, 0x60, 0xd0, 0x2d, 0x3b, 0xa4, 0x02, 0xcc, 0xbd,
  0x5e, 0xf0, 0x84, 0x3e, 0xb0, 0x9f, 0x2e, 0xbe, 0x55, 0x77, 0x8e, 0x3e,
  0x9e, 0x03, 0xf9, 0x3c, 0x37, 0x55, 0x8c, 0x3d, 0xe4, 0x9e, 0xd2, 0x3d,
  0x2c, 0x4e, 0xf9, 0x3e, 0x72, 0xf3, 0x38, 0xbe, 0x01, 0x97, 0xb3, 0x3e,
  0xd4, 0xdd, 0xed, 0x3e, 0x68, 0xc6, 0xaf, 0x3e, 0xbe, 0x36, 0xdc, 0x3e,
  0xd0, 0x94, 0x70, 0x3d, 0x50, 0x8b, 0xc8, 0x3e, 0x39, 0x05, 0xf6, 0xbe,
  0x2c, 0xb5, 0xb0, 0x3d, 0xd4, 0x4d, 0x95, 0xbe, 0xf2, 0x0c, 0x70, 0x3e,
  0xb2, 0x33, 0x23, 0x3e, 0x77, 0x56, 0xdd, 0xbd, 0xfd, 0xe1, 0xde, 0xbc,
  0x63, 0x6b, 0xca, 0x3e, 0xde, 0xea, 0xd1, 0xbd, 0x40, 0xbc, 0xd0, 0xbb,
  0x00, 0x68, 0x7d, 0x39, 0x91, 0x8d, 0x48, 0x3d, 0xa9, 0x82, 0xe8, 0x3e,
  0x75, 0xd2, 0x3c, 0x3e, 0x3a, 0x00, 0x0b, 0x3e, 0x65, 0x74, 0xd5, 0xbe,
  0xbd, 0xd8, 0x6e, 0x3e, 0xa0, 0xf9, 0x0a, 0x3d, 0x98, 0x88, 0x22, 0xbe,
  0xd7, 0x87, 0x9b, 0x3e, 0x2a, 0x50, 0x5a, 0x3e, 0x4d, 0x11, 0x5c, 0xbd,
  0x2d, 0x67, 0x4f, 0x3e, 0x9e, 0x48, 0xac, 0xbe, 0x5e, 0xd9, 0x98, 0x3e,
  0xde, 0x93, 0xc1, 0xbe, 0x04, 0x62, 0x84, 0xbd, 0x1b, 0x43, 0x3d, 0xbe,
  0x12, 0x97, 0x96, 0x3e, 0xef, 0xe0, 0xa6, 0xbe, 0xb8, 0x4a, 0xa9, 0xbd,
  0xe8, 0x71, 0x8c, 0x3d, 0x15, 0x07, 0x95, 0x3e, 0x7c, 0x70, 0xc2, 0x3d,
  0x18, 0x67, 0x9d, 0xbe, 0xf8, 0x05, 0x7f, 0x3d, 0x6b, 0x84, 0xb2, 0x3e,
  0xf7, 0x71, 0x49, 0x3d, 0x0d, 0xcb, 0x0e, 0x3f, 0xf6, 0x10, 0x2e, 0x3e,
  0xd1, 0x34, 0xc1, 0x3d, 0x30, 0x7d, 0x5d, 0xbd, 0xdc, 0xde, 0x00, 0xbe,
  0xb8, 0x10, 0x02, 0x3f, 0xae, 0xf0, 0x9d, 0xbe, 0x7b, 0x75, 0xf5, 0x3e,
  0x8e, 0x1a, 0x3d, 0x3e, 0x9b, 0xaa, 0x94, 0xbd, 0x3d, 0x6f, 0x5e, 0x3e,
  0x8c, 0x52, 0xe2, 0x3d, 0x79, 0x4e, 0x16, 0xbd, 0x90, 0xc7, 0x3d, 0xbe,
  0x9e, 0x86, 0xa9, 0xbe, 0x67, 0x1c, 0xd5, 0x3e, 0x9c, 0x3c, 0xcf, 0xbd,
  0x58, 0x05, 0xec, 0xbd, 0xc6, 0x77, 0x0a, 0xbe, 0x29, 0x67, 0x8d, 0x3e,
  0x38, 0x02, 0x2a, 0xbd, 0x26, 0x35, 0x5b, 0x3e, 0x86, 0x84, 0x3d, 0x3e,
  0x9c, 0x35, 0x98, 0x3d, 0x18, 0x6b, 0xae, 0xbe, 0xcc, 0x83, 0xcd, 0xbd,
  0x40, 0x08, 0xdc, 0x3c, 0xa8, 0xd1, 0xbf, 0xbe, 0x4f, 0x88, 0xa4, 0xbe,
  0x7a, 0x63, 0x4f, 0x3e, 0x4e, 0x01, 0xb9, 0xbe, 0x7e, 0x32, 0x10, 0xbe,
  0x87, 0x8e, 0xbd, 0xbe, 0x3b, 0xda, 0xa1, 0x3e, 0xb0, 0xc2, 0xcd, 0x3c,
  0x60, 0x46, 0x0f, 0x3c, 0xd2, 0x74, 0x4e, 0x3e, 0xd2, 0xae, 0x65, 0xbe,
  0xf8, 0x2d, 0x3c, 0xbd, 0x07, 0x37, 0xc1, 0xbe, 0xfb, 0x6c, 0xa2, 0x3e,
  0x0e, 0xd9, 0x7d, 0x3e, 0x70, 0x03, 0xfa, 0xbd, 0xc0, 0x94, 0x82, 0x3d,
  0x86, 0xb5, 0x6f, 0x3e, 0x61, 0xf7, 0x8b, 0x3e, 0xac, 0x52, 0x1a, 0xbe,
  0x9b, 0x07, 0xc7, 0x3e, 0xd6, 0x82, 0xc2, 0xbe, 0xa4, 0x8a, 0xf9, 0x3d,
  0x37, 0x83, 0x84, 0xbe, 0x86, 0x20, 0x9f, 0xbe, 0x2b, 0x0e, 0x9b, 0x3e,
  0x35, 0x02, 0x94, 0xbe, 0x1e, 0x6e, 0x23, 0xbe, 0x19, 0xf8, 0x3f, 0xbe,
  0x24, 0xd6, 0x86, 0x3d, 0xb4, 0xe7, 0xcd, 0x3d, 0x00, 0x7b, 0xbd, 0x3b,
  0x38, 0x80, 0x2a, 0x3d, 0xab, 0x3c, 0xdd, 0xbe, 0x04, 0xa2, 0x87, 0xbe,
  0x12, 0xea, 0xd4, 0xbe, 0x54, 0x7d, 0xf7, 0x3d, 0x76, 0x4b, 0x16, 0x3e,
  0x7c, 0xef, 0xfd, 0x3d, 0x48, 0xa5, 0x25, 0xbe, 0xe0, 0x74, 0x3d, 0xbd,
  0xfb, 0x66, 0xd2, 0x3e, 0x3a, 0xd6, 0x27, 0x3e, 0xc2, 0x34, 0xc2, 0xbe,
  0x47, 0x4b, 0xc2, 0x3e, 0xab, 0x01, 0x9e, 0x3e, 0x9b, 0x8f, 0x54, 0x3e,
  0x93, 0x2d, 0x5f, 0xbe, 0xee, 0xde, 0x69, 0x3e, 0x93, 0xf6, 0x67, 0xbe,
  0xbc, 0x73, 0xff, 0x3d, 0x9b, 0x53, 0xb2, 0x3e, 0x92, 0xfc, 0x9b, 0xbe,
  0x15, 0x7d, 0xfa, 0x3e, 0x45, 0x87, 0xa5, 0x3e, 0x34, 0x65, 0xc5, 0xbe,
  0x39, 0xde, 0x3c, 0xbe, 0x06, 0xf0, 0x43, 0x3e, 0xea, 0x5d, 0xc2, 0xbe,
  0xba, 0xc2, 0x28, 0x3e, 0x22, 0x42, 0xc3, 0xbe, 0xc2, 0xe9, 0x2e, 0xbe,
  0xf3, 0x85, 0x9b, 0xbe, 0x82, 0xa3, 0xdf, 0x3e, 0xc4, 0xae, 0x7c, 0xbe,
  0x54, 0xba, 0x05, 0xbe, 0x4d, 0x10, 0x9d, 0xbe, 0x15, 0xf1, 0xd8, 0x3e,
  0x99, 0x41, 0x92, 0xbd, 0x16, 0x74, 0x9a, 0xbe, 0xf1, 0x0c, 0x43, 0xbe,
  0x79, 0x95, 0x80, 0x3e, 0xd5, 0xfe, 0x88, 0x3e, 0x6c, 0xcf, 0xd9, 0xbd,
  0xf4, 0x30, 0x85, 0xbe, 0x69, 0xc0, 0xfd, 0xbe, 0x5e, 0xcf, 0x94, 0x3e,
  0xe1, 0xc2, 0xb2, 0x3e, 0x29, 0x09, 0x04, 0x3f, 0x1b, 0x76, 0xe3, 0x3e,
  0x18, 0x99, 0x1d, 0x3d, 0xf6, 0x16, 0xe8, 0xbd, 0x84, 0x68, 0xd1, 0xbe,
  0xf2, 0x7c, 0x33, 0x3e, 0x45, 0xd1, 0xce, 0x3e, 0x97, 0x48, 0xc4, 0x3c,
  0xcd, 0xcb, 0xad, 0x3e, 0x97, 0x95, 0x8d, 0xbd, 0x86, 0x02, 0x19, 0x3e,
  0x1a, 0x2f, 0x4c, 0x3e, 0x68, 0xbd, 0xc3, 0xbe, 0x96, 0x24, 0x20, 0x3f,
  0xdf, 0xaa, 0xba, 0x3c, 0x30, 0x99, 0xd0, 0xbd, 0x87, 0x71, 0x58, 0xbe,
  0xf2, 0xf9, 0xee, 0xbc, 0x39, 0x71, 0x85, 0x3e, 0xde, 0x36, 0x8a, 0x3b,
  0xbb, 0x9f, 0xd8, 0x3e, 0x6b, 0xd3, 0x57, 0xbe, 0x2a, 0x54, 0x6f, 0x3e,
  0xf1, 0x3c, 0x7a, 0x3e, 0x54, 0xfb, 0x2a, 0xbe, 0xb4, 0x05, 0x74, 0xbe,
  0x40, 0xd1, 0x20, 0xbe, 0xf4, 0xe8, 0xdb, 0xbe, 0xad, 0xd3, 0x72, 0xbe,
  0xb2, 0xdc, 0x92, 0x3d, 0xc3, 0xc6, 0x9b, 0x3e, 0xb6, 0x72, 0x7d, 0x3e,
  0xa5, 0xfb, 0xc0, 0xbe, 0x9e, 0x4e, 0x8b, 0x3e, 0x5e, 0x4d, 0x2e, 0x3e,
  0x69, 0x0a, 0x00, 0x3e, 0x64, 0xb4, 0x42, 0xbe, 0xb7, 0x1d, 0x7b, 0xbe,
  0x8d, 0xba, 0x78, 0xbe, 0x00, 0x00, 0x06, 0x00, 0x08, 0x00, 0x04, 0x00,
  0x06, 0x00, 0x00, 0x00, 0x04, 0x00, 0x00, 0x00, 0x80, 0x00, 0x00, 0x00,
  0x65, 0x64, 0x02, 0xbf, 0x59, 0xba, 0x56, 0x3f, 0xa9, 0x1a, 0xda, 0xbd,
  0x68, 0xdc, 0xfa, 0xbe, 0xb0, 0xa7, 0x8a, 0xbf, 0x44, 0x8a, 0x0c, 0x3f,
  0x5b, 0xc3, 0x62, 0x3e, 0x04, 0x88, 0x80, 0xbd, 0xd4, 0xd6, 0x11, 0x3e,
  0x50, 0x72, 0x52, 0xbd, 0x58, 0xaf, 0xa4, 0x3e, 0x38, 0xbf, 0x9a, 0xbd,
  0x0c, 0x25, 0x20, 0x3f, 0x39, 0xe1, 0x33, 0xbf, 0xc3, 0x41, 0x36, 0x3f,
  0x03, 0x5e, 0x1d, 0x3f, 0x07, 0x87, 0x0a, 0x3f, 0x96, 0xa0, 0xf3, 0xbe,
  0x46, 0xd0, 0xbc, 0xbe, 0x08, 0x3c, 0x0b, 0xbe, 0x20, 0x65, 0x63, 0x3f,
  0xf1, 0x7d, 0xee, 0xbd, 0xd3, 0x4e, 0x06, 0xbf, 0x01, 0x05, 0x29, 0xbf,
  0xa0, 0x92, 0xde, 0x3d, 0xfa, 0x6f, 0x1e, 0xbe, 0xdc, 0x26, 0xfc, 0xbd,
  0xc3, 0xf7, 0xb4, 0xbe, 0x3b, 0x7b, 0xf5, 0x3c, 0x4a, 0x65, 0x09, 0xbf,
  0xef, 0x72, 0xf8, 0x3e, 0x99, 0x1f, 0x90, 0xbe, 0x30, 0xfb, 0xff, 0xff,
  0x34, 0xfb, 0xff, 0xff, 0x0f, 0x00, 0x00, 0x00, 0x4d, 0x4c, 0x49, 0x52,
  0x20, 0x43, 0x6f, 0x6e, 0x76, 0x65, 0x72, 0x74, 0x65, 0x64, 0x2e, 0x00,
  0x01, 0x00, 0x00, 0x00, 0x14, 0x00, 0x00, 0x00, 0x00, 0x00, 0x0e, 0x00,
  0x18, 0x00, 0x14, 0x00, 0x10, 0x00, 0x0c, 0x00, 0x08, 0x00, 0x04, 0x00,
  0x0e, 0x00, 0x00, 0x00, 0x14, 0x00, 0x00, 0x00, 0x1c, 0x00, 0x00, 0x00,
  0xd8, 0x00, 0x00, 0x00, 0xdc, 0x00, 0x00, 0x00, 0xe0, 0x00, 0x00, 0x00,
  0x04, 0x00, 0x00, 0x00, 0x6d, 0x61, 0x69, 0x6e, 0x00, 0x00, 0x00, 0x00,
  0x03, 0x00, 0x00, 0x00, 0x80, 0x00, 0x00, 0x00, 0x38, 0x00, 0x00, 0x00,
  0x04, 0x00, 0x00, 0x00, 0x9a, 0xff, 0xff, 0xff, 0x10, 0x00, 0x00, 0x00,
  0x00, 0x00, 0x00, 0x08, 0x0c, 0x00, 0x00, 0x00, 0x10, 0x00, 0x00, 0x00,
  0xac, 0xfb, 0xff, 0xff, 0x01, 0x00, 0x00, 0x00, 0x09, 0x00, 0x00, 0x00,
  0x03, 0x00, 0x00, 0x00, 0x08, 0x00, 0x00, 0x00, 0x01, 0x00, 0x00, 0x00,
  0x03, 0x00, 0x00, 0x00, 0xca, 0xff, 0xff, 0xff, 0x10, 0x00, 0x00, 0x00,
  0x00, 0x00, 0x00, 0x08, 0x10, 0x00, 0x00, 0x00, 0x14, 0x00, 0x00, 0x00,
  0xba, 0xff, 0xff, 0xff, 0x00, 0x00, 0x00, 0x01, 0x01, 0x00, 0x00, 0x00,
  0x08, 0x00, 0x00, 0x00, 0x03, 0x00, 0x00, 0x00, 0x07, 0x00, 0x00, 0x00,
  0x02, 0x00, 0x00, 0x00, 0x04, 0x00, 0x00, 0x00, 0x00, 0x00, 0x0e, 0x00,
  0x16, 0x00, 0x00, 0x00, 0x10, 0x00, 0x0c, 0x00, 0x0b, 0x00, 0x04, 0x00,
  0x0e, 0x00, 0x00, 0x00, 0x18, 0x00, 0x00, 0x00, 0x00, 0x00, 0x00, 0x08,
  0x18, 0x00, 0x00, 0x00, 0x1c, 0x00, 0x00, 0x00, 0x00, 0x00, 0x06, 0x00,
  0x08, 0x00, 0x07, 0x00, 0x06, 0x00, 0x00, 0x00, 0x00, 0x00, 0x00, 0x01,
  0x01, 0x00, 0x00, 0x00, 0x07, 0x00, 0x00, 0x00, 0x03, 0x00, 0x00, 0x00,
  0x00, 0x00, 0x00, 0x00, 0x06, 0x00, 0x00, 0x00, 0x05, 0x00, 0x00, 0x00,
  0x01, 0x00, 0x00, 0x00, 0x09, 0x00, 0x00, 0x00, 0x01, 0x00, 0x00, 0x00,
  0x00, 0x00, 0x00, 0x00, 0x0a, 0x00, 0x00, 0x00, 0x7c, 0x03, 0x00, 0x00,
  0x24, 0x03, 0x00, 0x00, 0xcc, 0x02, 0x00, 0x00, 0x90, 0x02, 0x00, 0x00,
  0x34, 0x02, 0x00, 0x00, 0xdc, 0x01, 0x00, 0x00, 0x90, 0x01, 0x00, 0x00,
  0xfc, 0x00, 0x00, 0x00, 0x60, 0x00, 0x00, 0x00, 0x04, 0x00, 0x00, 0x00,
  0xc2, 0xfc, 0xff, 0xff, 0x00, 0x00, 0x00, 0x01, 0x14, 0x00, 0x00, 0x00,
  0x1c, 0x00, 0x00, 0x00, 0x1c, 0x00, 0x00, 0x00, 0x0a, 0x00, 0x00, 0x00,
  0x34, 0x00, 0x00, 0x00, 0x02, 0x00, 0x00, 0x00, 0xff, 0xff, 0xff, 0xff,
  0x02, 0x00, 0x00, 0x00, 0xac, 0xfc, 0xff, 0xff, 0x1b, 0x00, 0x00, 0x00,
  0x53, 0x74, 0x61, 0x74, 0x65, 0x66, 0x75, 0x6c, 0x50, 0x61, 0x72, 0x74,
  0x69, 0x74, 0x69, 0x6f, 0x6e, 0x65, 0x64, 0x43, 0x61, 0x6c, 0x6c, 0x5f,
  0x31, 0x3a, 0x30, 0x00, 0x02, 0x00, 0x00, 0x00, 0x01, 0x00, 0x00, 0x00,
  0x02, 0x00, 0x00, 0x00, 0x1a, 0xfd, 0xff, 0xff, 0x00, 0x00, 0x00, 0x01,
  0x14, 0x00, 0x00, 0x00, 0x1c, 0x00, 0x00, 0x00, 0x1c, 0x00, 0x00, 0x00,
  0x09, 0x00, 0x00, 0x00, 0x74, 0x00, 0x00, 0x00, 0x02, 0x00, 0x00, 0x00,
  0xff, 0xff, 0xff, 0xff, 0x10, 0x00, 0x00, 0x00, 0x04, 0xfd, 0xff, 0xff,
  0x58, 0x00, 0x00, 0x00, 0x66, 0x75, 0x6e, 0x63, 0x74, 0x69, 0x6f, 0x6e,
  0x61, 0x6c, 0x5f, 0x31, 0x2f, 0x64, 0x65, 0x6e, 0x73, 0x65, 0x5f, 0x31,
  0x5f, 0x32, 0x2f, 0x4d, 0x61, 0x74, 0x4d, 0x75, 0x6c, 0x3b, 0x66, 0x75,
  0x6e, 0x63, 0x74, 0x69, 0x6f, 0x6e, 0x61, 0x6c, 0x5f, 0x31, 0x2f, 0x64,
  0x65, 0x6e, 0x73, 0x65, 0x5f, 0x31, 0x5f, 0x32, 0x2f, 0x52, 0x65, 0x6c,
  0x75, 0x3b, 0x66, 0x75, 0x6e, 0x63, 0x74, 0x69, 0x6f, 0x6e, 0x61, 0x6c,
  0x5f, 0x31, 0x2f, 0x64, 0x65, 0x6e, 0x73, 0x65, 0x5f, 0x31, 0x5f, 0x32,
  0x2f, 0x42, 0x69, 0x61, 0x73, 0x41, 0x64, 0x64, 0x00, 0x00, 0x00, 0x00,
  0x02, 0x00, 0x00, 0x00, 0x01, 0x00, 0x00, 0x00, 0x10, 0x00, 0x00, 0x00,
  0xb2, 0xfd, 0xff, 0xff, 0x00, 0x00, 0x00, 0x01, 0x14, 0x00, 0x00, 0x00,
  0x1c, 0x00, 0x00, 0x00, 0x1c, 0x00, 0x00, 0x00, 0x08, 0x00, 0x00, 0x00,
  0x6c, 0x00, 0x00, 0x00, 0x02, 0x00, 0x00, 0x00, 0xff, 0xff, 0xff, 0xff,
  0x10, 0x00, 0x00, 0x00, 0x9c, 0xfd, 0xff, 0xff, 0x52, 0x00, 0x00, 0x00,
  0x66, 0x75, 0x6e, 0x63, 0x74, 0x69, 0x6f, 0x6e, 0x61, 0x6c, 0x5f, 0x31,
  0x2f, 0x64, 0x65, 0x6e, 0x73, 0x65, 0x5f, 0x31, 0x2f, 0x4d, 0x61, 0x74,
  0x4d, 0x75, 0x6c, 0x3b, 0x66, 0x75, 0x6e, 0x63, 0x74, 0x69, 0x6f, 0x6e,
  0x61, 0x6c, 0x5f, 0x31, 0x2f, 0x64, 0x65, 0x6e, 0x73, 0x65, 0x5f, 0x31,
  0x2f, 0x52, 0x65, 0x6c, 0x75, 0x3b, 0x66, 0x75, 0x6e, 0x63, 0x74, 0x69,
  0x6f, 0x6e, 0x61, 0x6c, 0x5f, 0x31, 0x2f, 0x64, 0x65, 0x6e, 0x73, 0x65,
  0x5f, 0x31, 0x2f, 0x42, 0x69, 0x61, 0x73, 0x41, 0x64, 0x64, 0x00, 0x00,
  0x02, 0x00, 0x00, 0x00, 0x01, 0x00, 0x00, 0x00, 0x10, 0x00, 0x00, 0x00,
  0x96, 0xfe, 0xff, 0xff, 0x00, 0x00, 0x00, 0x01, 0x10, 0x00, 0x00, 0x00,
  0x10, 0x00, 0x00, 0x00, 0x07, 0x00, 0x00, 0x00, 0x28, 0x00, 0x00, 0x00,
  0x1c, 0xfe, 0xff, 0xff, 0x1b, 0x00, 0x00, 0x00, 0x66, 0x75, 0x6e, 0x63,
  0x74, 0x69, 0x6f, 0x6e, 0x61, 0x6c, 0x5f, 0x31, 0x2f, 0x64, 0x65, 0x6e,
  0x73, 0x65, 0x5f, 0x31, 0x2f, 0x4d, 0x61, 0x74, 0x4d, 0x75, 0x6c, 0x00,
  0x02, 0x00, 0x00, 0x00, 0x10, 0x00, 0x00, 0x00, 0x01, 0x00, 0x00, 0x00,
  0xde, 0xfe, 0xff, 0xff, 0x00, 0x00, 0x00, 0x01, 0x10, 0x00, 0x00, 0x00,
  0x10, 0x00, 0x00, 0x00, 0x06, 0x00, 0x00, 0x00, 0x38, 0x00, 0x00, 0x00,
  0x64, 0xfe, 0xff, 0xff, 0x2b, 0x00, 0x00, 0x00, 0x66, 0x75, 0x6e, 0x63,
  0x74, 0x69, 0x6f, 0x6e, 0x61, 0x6c, 0x5f, 0x31, 0x2f, 0x64, 0x65, 0x6e,
  0x73, 0x65, 0x5f, 0x31, 0x2f, 0x42, 0x69, 0x61, 0x73, 0x41, 0x64, 0x64,
  0x2f, 0x52, 0x65, 0x61, 0x64, 0x56, 0x61, 0x72, 0x69, 0x61, 0x62, 0x6c,
  0x65, 0x4f, 0x70, 0x00, 0x01, 0x00, 0x00, 0x00, 0x10, 0x00, 0x00, 0x00,
  0x32, 0xff, 0xff, 0xff, 0x00, 0x00, 0x00, 0x01, 0x10, 0x00, 0x00, 0x00,
  0x10, 0x00, 0x00, 0x00, 0x05, 0x00, 0x00, 0x00, 0x3c, 0x00, 0x00, 0x00,
  0xb8, 0xfe, 0xff, 0xff, 0x2d, 0x00, 0x00, 0x00, 0x66, 0x75, 0x6e, 0x63,
  0x74, 0x69, 0x6f, 0x6e, 0x61, 0x6c, 0x5f, 0x31, 0x2f, 0x64, 0x65, 0x6e,
  0x73, 0x65, 0x5f, 0x31, 0x5f, 0x32, 0x2f, 0x42, 0x69, 0x61, 0x73, 0x41,
  0x64, 0x64, 0x2f, 0x52, 0x65, 0x61, 0x64, 0x56, 0x61, 0x72, 0x69, 0x61,
  0x62, 0x6c, 0x65, 0x4f, 0x70, 0x00, 0x00, 0x00, 0x01, 0x00, 0x00, 0x00,
  0x10, 0x00, 0x00, 0x00, 0x8a, 0xff, 0xff, 0xff, 0x00, 0x00, 0x00, 0x01,
  0x10, 0x00, 0x00, 0x00, 0x10, 0x00, 0x00, 0x00, 0x04, 0x00, 0x00, 0x00,
  0x1c, 0x00, 0x00, 0x00, 0x10, 0xff, 0xff, 0xff, 0x0f, 0x00, 0x00, 0x00,
  0x61, 0x72, 0x69, 0x74, 0x68, 0x2e, 0x63, 0x6f, 0x6e, 0x73, 0x74, 0x61,
  0x6e, 0x74, 0x32, 0x00, 0x01, 0x00, 0x00, 0x00, 0x02, 0x00, 0x00, 0x00,
  0xc2, 0xff, 0xff, 0xff, 0x00, 0x00, 0x00, 0x01, 0x10, 0x00, 0x00, 0x00,
  0x10, 0x00, 0x00, 0x00, 0x03, 0x00, 0x00, 0x00, 0x1c, 0x00, 0x00, 0x00,
  0x48, 0xff, 0xff, 0xff, 0x0f, 0x00, 0x00, 0x00, 0x61, 0x72, 0x69, 0x74,
  0x68, 0x2e, 0x63, 0x6f, 0x6e, 0x73, 0x74, 0x61, 0x6e, 0x74, 0x31, 0x00,
  0x02, 0x00, 0x00, 0x00, 0x10, 0x00, 0x00, 0x00, 0x10, 0x00, 0x00, 0x00,
  0x00, 0x00, 0x16, 0x00, 0x18, 0x00, 0x14, 0x00, 0x00, 0x00, 0x10, 0x00,
  0x0c, 0x00, 0x08, 0x00, 0x00, 0x00, 0x00, 0x00, 0x00, 0x00, 0x07, 0x00,
  0x16, 0x00, 0x00, 0x00, 0x00, 0x00, 0x00, 0x01, 0x10, 0x00, 0x00, 0x00,
  0x10, 0x00, 0x00, 0x00, 0x02, 0x00, 0x00, 0x00, 0x1c, 0x00, 0x00, 0x00,
  0x9c, 0xff, 0xff, 0xff, 0x0e, 0x00, 0x00, 0x00, 0x61, 0x72, 0x69, 0x74,
  0x68, 0x2e, 0x63, 0x6f, 0x6e, 0x73, 0x74, 0x61, 0x6e, 0x74, 0x00, 0x00,
  0x02, 0x00, 0x00, 0x00, 0x02, 0x00, 0x00, 0x00, 0x10, 0x00, 0x00, 0x00,
  0x00, 0x00, 0x16, 0x00, 0x1c, 0x00, 0x18, 0x00, 0x00, 0x00, 0x14, 0x00,
  0x10, 0x00, 0x0c, 0x00, 0x00, 0x00, 0x00, 0x00, 0x08, 0x00, 0x07, 0x00,
  0x16, 0x00, 0x00, 0x00, 0x00, 0x00, 0x00, 0x01, 0x14, 0x00, 0x00, 0x00,
  0x20, 0x00, 0x00, 0x00, 0x20, 0x00, 0x00, 0x00, 0x01, 0x00, 0x00, 0x00,
  0x3c, 0x00, 0x00, 0x00, 0x02, 0x00, 0x00, 0x00, 0xff, 0xff, 0xff, 0xff,
  0x01, 0x00, 0x00, 0x00, 0x04, 0x00, 0x04, 0x00, 0x04, 0x00, 0x00, 0x00,
  0x1f, 0x00, 0x00, 0x00, 0x73, 0x65, 0x72, 0x76, 0x69, 0x6e, 0x67, 0x5f,
  0x64, 0x65, 0x66, 0x61, 0x75, 0x6c, 0x74, 0x5f, 0x65, 0x6e, 0x63, 0x6f,
  0x64, 0x65, 0x72, 0x5f, 0x69, 0x6e, 0x70, 0x75, 0x74, 0x3a, 0x30, 0x00,
  0x02, 0x00, 0x00, 0x00, 0x01, 0x00, 0x00, 0x00, 0x01, 0x00, 0x00, 0x00,
  0x01, 0x00, 0x00, 0x00, 0x10, 0x00, 0x00, 0x00, 0x0c, 0x00, 0x0c, 0x00,
  0x0b, 0x00, 0x00, 0x00, 0x00, 0x00, 0x04, 0x00, 0x0c, 0x00, 0x00, 0x00,
  0x09, 0x00, 0x00, 0x00, 0x00, 0x00, 0x00, 0x09
};
unsigned int exported_models_tflite_encoder_model_tflite_len = 3236;


#endif // ENCODER_MODEL_DATA_H
