
#ifndef ENCODER_MODEL_DATA_H
#define ENCODER_MODEL_DATA_H

// Auto-generated by xxd. Do not edit manually.
// Model expects scaled input (0 to 1 range)

unsigned char exported_models_tflite_encoder_model_tflite[] = {
  0x1c, 0x00, 0x00, 0x00, 0x54, 0x46, 0x4c, 0x33, 0x14, 0x00, 0x20, 0x00,
  0x1c, 0x00, 0x18, 0x00, 0x14, 0x00, 0x10, 0x00, 0x0c, 0x00, 0x00, 0x00,
  0x08, 0x00, 0x04, 0x00, 0x14, 0x00, 0x00, 0x00, 0x1c, 0x00, 0x00, 0x00,
  0x98, 0x00, 0x00, 0x00, 0xf0, 0x00, 0x00, 0x00, 0x58, 0x07, 0x00, 0x00,
  0x68, 0x07, 0x00, 0x00, 0x50, 0x0c, 0x00, 0x00, 0x03, 0x00, 0x00, 0x00,
  0x01, 0x00, 0x00, 0x00, 0x10, 0x00, 0x00, 0x00, 0x00, 0x00, 0x0a, 0x00,
  0x10, 0x00, 0x0c, 0x00, 0x08, 0x00, 0x04, 0x00, 0x0a, 0x00, 0x00, 0x00,
  0x0c, 0x00, 0x00, 0x00, 0x1c, 0x00, 0x00, 0x00, 0x3c, 0x00, 0x00, 0x00,
  0x0f, 0x00, 0x00, 0x00, 0x73, 0x65, 0x72, 0x76, 0x69, 0x6e, 0x67, 0x5f,
  0x64, 0x65, 0x66, 0x61, 0x75, 0x6c, 0x74, 0x00, 0x01, 0x00, 0x00, 0x00,
  0x04, 0x00, 0x00, 0x00, 0x90, 0xff, 0xff, 0xff, 0x09, 0x00, 0x00, 0x00,
  0x04, 0x00, 0x00, 0x00, 0x08, 0x00, 0x00, 0x00, 0x6f, 0x75, 0x74, 0x70,
  0x75, 0x74, 0x5f, 0x30, 0x00, 0x00, 0x00, 0x00, 0x01, 0x00, 0x00, 0x00,
  0x04, 0x00, 0x00, 0x00, 0xb6, 0xf9, 0xff, 0xff, 0x04, 0x00, 0x00, 0x00,
  0x0d, 0x00, 0x00, 0x00, 0x65, 0x6e, 0x63, 0x6f, 0x64, 0x65, 0x72, 0x5f,
  0x69, 0x6e, 0x70, 0x75, 0x74, 0x00, 0x00, 0x00, 0x02, 0x00, 0x00, 0x00,
  0x34, 0x00, 0x00, 0x00, 0x04, 0x00, 0x00, 0x00, 0xdc, 0xff, 0xff, 0xff,
  0x0c, 0x00, 0x00, 0x00, 0x04, 0x00, 0x00, 0x00, 0x13, 0x00, 0x00, 0x00,
  0x43, 0x4f, 0x4e, 0x56, 0x45, 0x52, 0x53, 0x49, 0x4f, 0x4e, 0x5f, 0x4d,
  0x45, 0x54, 0x41, 0x44, 0x41, 0x54, 0x41, 0x00, 0x08, 0x00, 0x0c, 0x00,
  0x08, 0x00, 0x04, 0x00, 0x08, 0x00, 0x00, 0x00, 0x0b, 0x00, 0x00, 0x00,
  0x04, 0x00, 0x00, 0x00, 0x13, 0x00, 0x00, 0x00, 0x6d, 0x69, 0x6e, 0x5f,
  0x72, 0x75, 0x6e, 0x74, 0x69, 0x6d, 0x65, 0x5f, 0x76, 0x65, 0x72, 0x73,
  0x69, 0x6f, 0x6e, 0x00, 0x0d, 0x00, 0x00, 0x00, 0x64, 0x06, 0x00, 0x00,
  0x5c, 0x06, 0x00, 0x00, 0xcc, 0x05, 0x00, 0x00, 0xb4, 0x01, 0x00, 0x00,
  0x9c, 0x01, 0x00, 0x00, 0x4c, 0x01, 0x00, 0x00, 0xfc, 0x00, 0x00, 0x00,
  0xac, 0x00, 0x00, 0x00, 0xa4, 0x00, 0x00, 0x00, 0x9c, 0x00, 0x00, 0x00,
  0x94, 0x00, 0x00, 0x00, 0x74, 0x00, 0x00, 0x00, 0x04, 0x00, 0x00, 0x00,
  0x66, 0xfa, 0xff, 0xff, 0x04, 0x00, 0x00, 0x00, 0x60, 0x00, 0x00, 0x00,
  0x10, 0x00, 0x00, 0x00, 0x00, 0x00, 0x00, 0x00, 0x08, 0x00, 0x0e, 0x00,
  0x08, 0x00, 0x04, 0x00, 0x08, 0x00, 0x00, 0x00, 0x10, 0x00, 0x00, 0x00,
  0x24, 0x00, 0x00, 0x00, 0x00, 0x00, 0x06, 0x00, 0x08, 0x00, 0x04, 0x00,
  0x06, 0x00, 0x00, 0x00, 0x04, 0x00, 0x00, 0x00, 0x00, 0x00, 0x00, 0x00,
  0x0c, 0x00, 0x18, 0x00, 0x14, 0x00, 0x10, 0x00, 0x0c, 0x00, 0x04, 0x00,
  0x0c, 0x00, 0x00, 0x00, 0x07, 0x0a, 0x31, 0x1c, 0xf9, 0x13, 0x4d, 0x2c,
  0x02, 0x00, 0x00, 0x00, 0x02, 0x00, 0x00, 0x00, 0x04, 0x00, 0x00, 0x00,
  0x06, 0x00, 0x00, 0x00, 0x32, 0x2e, 0x31, 0x39, 0x2e, 0x30, 0x00, 0x00,
  0xd2, 0xfa, 0xff, 0xff, 0x04, 0x00, 0x00, 0x00, 0x10, 0x00, 0x00, 0x00,
  0x31, 0x2e, 0x35, 0x2e, 0x30, 0x00, 0x00, 0x00, 0x00, 0x00, 0x00, 0x00,
  0x00, 0x00, 0x00, 0x00, 0x8c, 0xf5, 0xff, 0xff, 0x90, 0xf5, 0xff, 0xff,
  0x94, 0xf5, 0xff, 0xff, 0xfa, 0xfa, 0xff, 0xff, 0x04, 0x00, 0x00, 0x00,
  0x40, 0x00, 0x00, 0x00, 0x3d, 0x11, 0x11, 0xbf, 0xa4, 0xfa, 0x94, 0x3e,
  0x3b, 0xa8, 0xb8, 0x3e, 0x36, 0xe7, 0xcd, 0xbe, 0xbf, 0x5e, 0xe9, 0x3e,
  0xef, 0x32, 0x13, 0xbf, 0x92, 0x38, 0x18, 0xbe, 0x9f, 0xe9, 0x15, 0xbf,
  0x95, 0x46, 0xd2, 0x3e, 0xff, 0xc5, 0xc8, 0x3d, 0x62, 0x93, 0xd9, 0xbe,
  0xb7, 0xca, 0x6f, 0x3e, 0xeb, 0xbe, 0xf5, 0x3e, 0x19, 0xcf, 0x3f, 0x3f,
  0x08, 0x8a, 0x31, 0x3f, 0x90, 0x3f, 0x8d, 0x3e, 0x46, 0xfb, 0xff, 0xff,
  0x04, 0x00, 0x00, 0x00, 0x40, 0x00, 0x00, 0x00, 0x00, 0x00, 0x00, 0x00,
  0x1d, 0xcd, 0x33, 0xbc, 0x31, 0xec, 0x37, 0x3b, 0x00, 0x00, 0x00, 0x00,
  0xc2, 0x2c, 0x0e, 0x3e, 0x00, 0x00, 0x00, 0x00, 0x00, 0x00, 0x00, 0x00,
  0x00, 0x00, 0x00, 0x00, 0x5f, 0x0c, 0x94, 0x3e, 0x31, 0xb0, 0xa1, 0x3e,
  0x00, 0x00, 0x00, 0x00, 0x52, 0xe6, 0xa5, 0x38, 0x92, 0x0f, 0x88, 0x39,
  0x59, 0x18, 0xdd, 0x3b, 0x34, 0xdc, 0xac, 0x39, 0xba, 0x66, 0x5e, 0x39,
  0x92, 0xfb, 0xff, 0xff, 0x04, 0x00, 0x00, 0x00, 0x40, 0x00, 0x00, 0x00,
  0xc1, 0x1a, 0x90, 0x3e, 0xb9, 0x54, 0xb2, 0x3c, 0x37, 0x00, 0xd2, 0xbc,
  0x99, 0x7c, 0x69, 0x3e, 0xcf, 0x05, 0x53, 0x3e, 0xaf, 0xed, 0xc0, 0x3c,
  0xde, 0x79, 0x40, 0x3e, 0x6d, 0x09, 0xac, 0x3d, 0x00, 0x00, 0x00, 0x00,
  0x00, 0x00, 0x00, 0x00, 0x53, 0x77, 0xb9, 0xbd, 0xf1, 0x7f, 0x83, 0x3e,
  0x00, 0x00, 0x00, 0x00, 0x00, 0x00, 0x00, 0x00, 0xa7, 0x76, 0xc4, 0xbd,
  0x00, 0x00, 0x00, 0x00, 0xde, 0xfb, 0xff, 0xff, 0x04, 0x00, 0x00, 0x00,
  0x08, 0x00, 0x00, 0x00, 0xe2, 0xbe, 0x68, 0x3e, 0x4f, 0x7a, 0x8a, 0x3d,
  0xf2, 0xfb, 0xff, 0xff, 0x04, 0x00, 0x00, 0x00, 0x00, 0x04, 0x00, 0x00,
  0xc3, 0x2a, 0xc2, 0x3e, 0xad, 0x16, 0x80, 0xbe, 0xf0, 0xd8, 0xda, 0x3e,
  0xbf, 0xe4, 0x7d, 0xbe, 0xa0, 0xd3, 0x10, 0x3f, 0x50, 0x8e, 0xfb, 0xbc,
  0x30, 0x18, 0xfa, 0x3c, 0xe4, 0x79, 0x78, 0xbe, 0xdf, 0x8e, 0xee, 0x3e,
  0xda, 0xce, 0x87, 0x3e, 0xd0, 0x23, 0xb7, 0xbe, 0x06, 0x2b, 0x74, 0xbe,
  0xff, 0xa6, 0x86, 0xbe, 0x33, 0x34, 0xfa, 0x3d, 0xcb, 0x72, 0x27, 0x3e,
  0xde, 0xeb, 0xfd, 0x3c, 0x54, 0x25, 0x98, 0xbd, 0x35, 0x15, 0xa3, 0xbe,
  0xfc, 0xf3, 0xb7, 0x3e, 0x2c, 0xcb, 0x87, 0xbd, 0xd4, 0x2c, 0x66, 0x3d,
  0x5d, 0xeb, 0x51, 0xbe, 0x20, 0x17, 0xba, 0xbe, 0x0c, 0xd4, 0xee, 0xbd,
  0x40, 0x36, 0x05, 0x3e, 0x9a, 0x5d, 0x9d, 0x3d, 0x60, 0x2e, 0x50, 0x3c,
  0x92, 0xe0, 0x54, 0xbe, 0x21, 0xbc, 0xd2, 0x3e, 0x11, 0x69, 0x0f, 0x3f,
  0x1f, 0x6c, 0xa5, 0x3e, 0x14, 0x27, 0x51, 0x3e, 0x7e, 0x01, 0x53, 0x3e,
  0xa0, 0x96, 0x0a, 0xbe, 0xbd, 0x67, 0xbe, 0xbe, 0x92, 0xa4, 0x24, 0x3e,
  0x65, 0xd7, 0x9e, 0xbe, 0x8b, 0xb4, 0xb1, 0x3e, 0x1f, 0x89, 0xbc, 0x3e,
  0x1f, 0x76, 0xa6, 0x3e, 0xcf, 0xf4, 0x26, 0x3e, 0xfd, 0xc4, 0x88, 0x3d,
  0xe0, 0xe1, 0x2a, 0x3d, 0xb8, 0x37, 0x8e, 0x3e, 0xc5, 0x52, 0x9e, 0x3e,
  0x6d, 0xa9, 0x33, 0x3e, 0x85, 0x10, 0xb6, 0xbe, 0xd5, 0x0b, 0x94, 0x3e,
  0x21, 0xa8, 0xdc, 0xbe, 0xe6, 0xab, 0xc6, 0xbe, 0x8e, 0x1e, 0x70, 0xbe,
  0xb4, 0x33, 0xc5, 0xbd, 0x05, 0x95, 0x9a, 0x3b, 0xa3, 0x3e, 0xb8, 0x3e,
  0xe4, 0x87, 0x9c, 0xbe, 0x60, 0xa8, 0x64, 0xbd, 0xd9, 0xfa, 0xf9, 0x3e,
  0xc5, 0x50, 0xc1, 0x3e, 0xa0, 0x03, 0x13, 0xbd, 0xb4, 0x56, 0x88, 0xbe,
  0x12, 0x45, 0x5b, 0x3e, 0x15, 0xd6, 0xb4, 0xbe, 0xc6, 0xc3, 0x85, 0x3e,
  0xf7, 0xd2, 0xab, 0xbe, 0x8e, 0x74, 0x24, 0x3e, 0x41, 0x65, 0x44, 0xbe,
  0xb7, 0xab, 0x9b, 0xbe, 0xce, 0x7b, 0x52, 0x3e, 0x75, 0x6d, 0x90, 0xbd,
  0x4a, 0xed, 0x72, 0x3e, 0xa0, 0x9b, 0xc5, 0xbd, 0xda, 0x5e, 0x79, 0x3e,
  0x2c, 0xec, 0x1e, 0xbe, 0x39, 0x23, 0xd3, 0x3e, 0xae, 0x7d, 0x16, 0x3e,
  0x90, 0x0f, 0xf0, 0xbe, 0x19, 0xdc, 0x86, 0xbe, 0xeb, 0x21, 0x89, 0x3e,
  0xe6, 0xc6, 0xb7, 0xbd, 0xdd, 0x24, 0x04, 0x3e, 0x2f, 0x1c, 0xcf, 0x3e,
  0xe9, 0x16, 0x48, 0xbe, 0x7d, 0xe3, 0x04, 0x3f, 0xe0, 0x72, 0x23, 0xbd,
  0x8b, 0x10, 0xd4, 0x3e, 0x98, 0x00, 0x9f, 0xbd, 0xec, 0xde, 0xa3, 0x3d,
  0x94, 0xde, 0xe5, 0x3d, 0xa5, 0x48, 0xd1, 0x3d, 0xe3, 0xfc, 0x74, 0x3e,
  0x06, 0xed, 0xd0, 0xbe, 0x07, 0x23, 0x27, 0xbc, 0x2f, 0xb6, 0x7e, 0x3e,
  0x89, 0xe1, 0xc1, 0x3e, 0x4f, 0x7b, 0x0a, 0x3f, 0x8b, 0xf4, 0x60, 0xbd,
  0xbb, 0x67, 0xb2, 0x3e, 0x67, 0x31, 0x99, 0x3e, 0x18, 0xbb, 0x9e, 0xbe,
  0xe0, 0x45, 0x35, 0xbd, 0x07, 0xeb, 0x26, 0x3e, 0xcd, 0xe9, 0xa3, 0x3e,
  0x51, 0xf0, 0xc1, 0xbe, 0xdf, 0x2c, 0xc7, 0x3e, 0x7e, 0x12, 0x90, 0xbd,
  0x83, 0x8b, 0x19, 0x3f, 0x02, 0xf2, 0x88, 0xbe, 0x81, 0x84, 0xc5, 0xbe,
  0x25, 0xd2, 0x92, 0xbd, 0x3d, 0xa0, 0xf9, 0x3d, 0xed, 0x31, 0xd5, 0xbe,
  0x44, 0xbd, 0xf4, 0xbe, 0x9d, 0x3b, 0x8a, 0x3e, 0x04, 0x0e, 0xd3, 0x3d,
  0xdc, 0xad, 0xef, 0xbe, 0x54, 0x75, 0xc3, 0x3d, 0x78, 0x62, 0xb2, 0x3e,
  0x54, 0x18, 0xab, 0xbe, 0xba, 0xd7, 0x0c, 0x3e, 0xa6, 0xaf, 0x74, 0x3e,
  0x52, 0x65, 0x79, 0x3e, 0x17, 0x38, 0x25, 0xbd, 0xde, 0xb6, 0x91, 0xbe,
  0x14, 0xac, 0x17, 0x3d, 0x49, 0xae, 0xbc, 0xbd, 0x28, 0xee, 0x2c, 0xbe,
  0x9c, 0x01, 0x12, 0xbe, 0xc1, 0x26, 0x19, 0xbe, 0x66, 0xb7, 0x4e, 0x3e,
  0x4b, 0x3e, 0xbe, 0x3e, 0x40, 0x2b, 0x75, 0xbd, 0xbe, 0xf4, 0x5c, 0x3e,
  0x3f, 0xb1, 0xaf, 0x3e, 0x1a, 0x8f, 0xc3, 0xbe, 0x82, 0x87, 0x02, 0xbe,
  0x74, 0x79, 0xe9, 0xbd, 0xc4, 0x38, 0xbd, 0xbe, 0x8a, 0x63, 0x23, 0xbe,
  0x92, 0x77, 0x50, 0xbe, 0x14, 0x38, 0xcd, 0x3d, 0xb4, 0xc3, 0x83, 0xbe,
  0x92, 0x34, 0x5c, 0x3e, 0xd1, 0x91, 0xab, 0xbe, 0x51, 0xf5, 0xc5, 0xbe,
  0xf0, 0x72, 0x60, 0x3d, 0xad, 0xa5, 0xcb, 0x3e, 0xac, 0x17, 0xd8, 0xbe,
  0x10, 0x10, 0xdc, 0xbc, 0x84, 0xa4, 0xc2, 0xbe, 0x8a, 0x72, 0xd1, 0xbe,
  0x44, 0x45, 0x92, 0xbd, 0x20, 0xe3, 0x2b, 0x3c, 0x5d, 0x11, 0xd0, 0xbe,
  0x24, 0x2b, 0x4d, 0xbe, 0x6d, 0xb6, 0xaf, 0x3e, 0xe0, 0xaa, 0x47, 0xbe,
  0x6b, 0x08, 0xab, 0xbe, 0xfb, 0x5b, 0xd3, 0x3e, 0x06, 0x1f, 0xc9, 0xbe,
  0x50, 0xcf, 0xd0, 0xbd, 0x32, 0xde, 0x4f, 0x3e, 0xac, 0x83, 0xb5, 0xbe,
  0x34, 0x49, 0x09, 0x3f, 0x0a, 0xa3, 0x3f, 0x3e, 0x4a, 0x81, 0xf9, 0x3e,
  0x9c, 0xfd, 0x8c, 0x3d, 0xe2, 0xbe, 0x56, 0x3e, 0xb2, 0x73, 0xdc, 0xbe,
  0x32, 0x23, 0x85, 0x3e, 0x45, 0xe4, 0x43, 0xbd, 0xee, 0x8b, 0x7c, 0x3e,
  0x81, 0xe2, 0x8b, 0x3e, 0xb9, 0xd9, 0xb4, 0x3e, 0x01, 0x51, 0x8d, 0x3e,
  0x74, 0xbe, 0x0e, 0x3f, 0x34, 0x21, 0x16, 0x3f, 0x27, 0xcf, 0xd4, 0xbe,
  0x3a, 0xb5, 0x5a, 0x3e, 0xb0, 0x30, 0x0b, 0x3e, 0xa8, 0xa7, 0x96, 0xbe,
  0xcf, 0x84, 0xab, 0xbb, 0x87, 0xf1, 0x69, 0xbe, 0xc0, 0xf1, 0x70, 0xbc,
  0x7e, 0x08, 0xa2, 0xbe, 0xb7, 0xff, 0xd4, 0x3e, 0x8b, 0x13, 0x21, 0x3f,
  0x2c, 0xf8, 0xf6, 0x3d, 0x3b, 0x0e, 0xb9, 0xbe, 0x65, 0xdc, 0x1d, 0xbe,
  0xab, 0xc5, 0x8a, 0x3e, 0xcb, 0xd4, 0xbf, 0xbe, 0x63, 0x8a, 0xf0, 0xbd,
  0xd4, 0xde, 0x8f, 0x3d, 0x3b, 0x88, 0xd6, 0xbe, 0xe0, 0xf6, 0x68, 0xbc,
  0xb0, 0xee, 0x14, 0xbe, 0x18, 0xf6, 0xc0, 0xbd, 0xa8, 0x55, 0x5d, 0xbd,
  0xc8, 0x30, 0x2b, 0xbd, 0xdd, 0x64, 0x91, 0x3e, 0xd9, 0x29, 0x7a, 0xbe,
  0x82, 0x96, 0xad, 0xbe, 0xba, 0x33, 0x22, 0x3e, 0x04, 0xe6, 0xba, 0x3d,
  0x81, 0x27, 0xa9, 0x3e, 0x0e, 0x54, 0xa5, 0xbe, 0xf0, 0x26, 0x89, 0xbd,
  0x0f, 0x3b, 0x86, 0x3e, 0xbd, 0x1d, 0xba, 0x3e, 0x93, 0x69, 0xc0, 0xbe,
  0x84, 0x96, 0xdb, 0xbd, 0x20, 0xa4, 0x9d, 0x3c, 0x2c, 0xf3, 0x7a, 0xbe,
  0x2d, 0x58, 0x85, 0x3e, 0x09, 0xa1, 0xbf, 0x3e, 0x90, 0x43, 0xba, 0xbc,
  0xa6, 0xea, 0x01, 0xbe, 0x1e, 0x64, 0x56, 0xbe, 0x6e, 0xf9, 0x04, 0x3e,
  0x60, 0x7d, 0x8e, 0xbd, 0xe8, 0x55, 0x37, 0x3d, 0x1d, 0x7f, 0xa5, 0xbe,
  0xe2, 0x8c, 0xc6, 0xbe, 0x7d, 0xcc, 0xa0, 0x3e, 0x55, 0x7c, 0xac, 0x3e,
  0x04, 0xdc, 0xa8, 0xbe, 0xc9, 0x04, 0x0a, 0x3e, 0x2b, 0x0f, 0x4f, 0xbe,
  0x3c, 0x8c, 0x5a, 0x3e, 0x8e, 0xac, 0x3a, 0xbe, 0x55, 0x29, 0x82, 0x3e,
  0x5a, 0xa6, 0x62, 0x3e, 0x09, 0xce, 0x4e, 0x3d, 0x7d, 0x9b, 0x46, 0x3e,
  0x64, 0xad, 0x9b, 0xbe, 0x0f, 0x17, 0xaa, 0x3e, 0x6a, 0x93, 0x08, 0x3f,
  0x5b, 0x62, 0xfa, 0x3e, 0xea, 0xb5, 0x43, 0x3e, 0x9b, 0x25, 0xa3, 0x3e,
  0xf6, 0xa8, 0x26, 0xbe, 0xa0, 0x41, 0x96, 0xbe, 0x67, 0x16, 0x93, 0x3e,
  0xc0, 0xa7, 0xab, 0xbd, 0xfe, 0x5b, 0x02, 0x3e, 0x04, 0x30, 0xed, 0xbd,
  0xb5, 0xd4, 0x87, 0x3e, 0x7a, 0xc6, 0xa7, 0xbe, 0x4f, 0x0a, 0xbf, 0xbe,
  0x06, 0x8b, 0xb5, 0xbe, 0xac, 0x5d, 0xcb, 0x3d, 0x2e, 0x42, 0x1c, 0x3e,
  0x00, 0x58, 0xbf, 0xb9, 0xc2, 0x3c, 0x67, 0xbe, 0xa4, 0xa9, 0xc2, 0xbd,
  0x2f, 0xb3, 0x9e, 0x3e, 0x00, 0x00, 0x06, 0x00, 0x08, 0x00, 0x04, 0x00,
  0x06, 0x00, 0x00, 0x00, 0x04, 0x00, 0x00, 0x00, 0x80, 0x00, 0x00, 0x00,
  0x67, 0xfd, 0x3e, 0x3f, 0x55, 0x54, 0xd7, 0x3c, 0xd0, 0xe2, 0xb9, 0xbe,
  0x64, 0x38, 0x59, 0x3f, 0xae, 0x4b, 0x00, 0x3f, 0xaa, 0x7b, 0x1e, 0x3e,
  0x20, 0xbf, 0x74, 0x3e, 0x51, 0x47, 0x5b, 0xbd, 0x36, 0x3e, 0x82, 0xbe,
  0x36, 0x92, 0xc8, 0x3e, 0x0a, 0x38, 0xbc, 0xbe, 0xb7, 0xa6, 0x30, 0x3f,
  0x30, 0xe3, 0x37, 0x3e, 0x1e, 0xe2, 0xdf, 0xbe, 0x45, 0x8e, 0x22, 0xbf,
  0x10, 0x16, 0x83, 0x3d, 0x60, 0x53, 0x90, 0xbe, 0x7b, 0xf9, 0x21, 0xbf,
  0xce, 0xc7, 0x7b, 0x3e, 0x81, 0xb9, 0xef, 0x3d, 0x70, 0xfc, 0xb8, 0x3e,
  0xe7, 0x4a, 0x3a, 0xbf, 0x13, 0x9e, 0xbf, 0x3e, 0x04, 0x09, 0x1d, 0x3f,
  0x82, 0x9a, 0x14, 0xbe, 0x94, 0x94, 0x10, 0x3f, 0xcd, 0x43, 0x25, 0xbf,
  0xdb, 0x1d, 0x11, 0xbd, 0xfc, 0xdd, 0xab, 0xbe, 0x36, 0x79, 0x02, 0x3f,
  0x7c, 0x42, 0x32, 0xbf, 0x7a, 0x17, 0xd2, 0x3e, 0x30, 0xfb, 0xff, 0xff,
  0x34, 0xfb, 0xff, 0xff, 0x0f, 0x00, 0x00, 0x00, 0x4d, 0x4c, 0x49, 0x52,
  0x20, 0x43, 0x6f, 0x6e, 0x76, 0x65, 0x72, 0x74, 0x65, 0x64, 0x2e, 0x00,
  0x01, 0x00, 0x00, 0x00, 0x14, 0x00, 0x00, 0x00, 0x00, 0x00, 0x0e, 0x00,
  0x18, 0x00, 0x14, 0x00, 0x10, 0x00, 0x0c, 0x00, 0x08, 0x00, 0x04, 0x00,
  0x0e, 0x00, 0x00, 0x00, 0x14, 0x00, 0x00, 0x00, 0x1c, 0x00, 0x00, 0x00,
  0xd8, 0x00, 0x00, 0x00, 0xdc, 0x00, 0x00, 0x00, 0xe0, 0x00, 0x00, 0x00,
  0x04, 0x00, 0x00, 0x00, 0x6d, 0x61, 0x69, 0x6e, 0x00, 0x00, 0x00, 0x00,
  0x03, 0x00, 0x00, 0x00, 0x80, 0x00, 0x00, 0x00, 0x38, 0x00, 0x00, 0x00,
  0x04, 0x00, 0x00, 0x00, 0x9a, 0xff, 0xff, 0xff, 0x10, 0x00, 0x00, 0x00,
  0x00, 0x00, 0x00, 0x08, 0x0c, 0x00, 0x00, 0x00, 0x10, 0x00, 0x00, 0x00,
  0xac, 0xfb, 0xff, 0xff, 0x01, 0x00, 0x00, 0x00, 0x09, 0x00, 0x00, 0x00,
  0x03, 0x00, 0x00, 0x00, 0x08, 0x00, 0x00, 0x00, 0x01, 0x00, 0x00, 0x00,
  0x03, 0x00, 0x00, 0x00, 0xca, 0xff, 0xff, 0xff, 0x10, 0x00, 0x00, 0x00,
  0x00, 0x00, 0x00, 0x08, 0x10, 0x00, 0x00, 0x00, 0x14, 0x00, 0x00, 0x00,
  0xba, 0xff, 0xff, 0xff, 0x00, 0x00, 0x00, 0x01, 0x01, 0x00, 0x00, 0x00,
  0x08, 0x00, 0x00, 0x00, 0x03, 0x00, 0x00, 0x00, 0x07, 0x00, 0x00, 0x00,
  0x02, 0x00, 0x00, 0x00, 0x04, 0x00, 0x00, 0x00, 0x00, 0x00, 0x0e, 0x00,
  0x16, 0x00, 0x00, 0x00, 0x10, 0x00, 0x0c, 0x00, 0x0b, 0x00, 0x04, 0x00,
  0x0e, 0x00, 0x00, 0x00, 0x18, 0x00, 0x00, 0x00, 0x00, 0x00, 0x00, 0x08,
  0x18, 0x00, 0x00, 0x00, 0x1c, 0x00, 0x00, 0x00, 0x00, 0x00, 0x06, 0x00,
  0x08, 0x00, 0x07, 0x00, 0x06, 0x00, 0x00, 0x00, 0x00, 0x00, 0x00, 0x01,
  0x01, 0x00, 0x00, 0x00, 0x07, 0x00, 0x00, 0x00, 0x03, 0x00, 0x00, 0x00,
  0x00, 0x00, 0x00, 0x00, 0x06, 0x00, 0x00, 0x00, 0x05, 0x00, 0x00, 0x00,
  0x01, 0x00, 0x00, 0x00, 0x09, 0x00, 0x00, 0x00, 0x01, 0x00, 0x00, 0x00,
  0x00, 0x00, 0x00, 0x00, 0x0a, 0x00, 0x00, 0x00, 0x7c, 0x03, 0x00, 0x00,
  0x24, 0x03, 0x00, 0x00, 0xcc, 0x02, 0x00, 0x00, 0x90, 0x02, 0x00, 0x00,
  0x34, 0x02, 0x00, 0x00, 0xdc, 0x01, 0x00, 0x00, 0x90, 0x01, 0x00, 0x00,
  0xfc, 0x00, 0x00, 0x00, 0x60, 0x00, 0x00, 0x00, 0x04, 0x00, 0x00, 0x00,
  0xc2, 0xfc, 0xff, 0xff, 0x00, 0x00, 0x00, 0x01, 0x14, 0x00, 0x00, 0x00,
  0x1c, 0x00, 0x00, 0x00, 0x1c, 0x00, 0x00, 0x00, 0x0a, 0x00, 0x00, 0x00,
  0x34, 0x00, 0x00, 0x00, 0x02, 0x00, 0x00, 0x00, 0xff, 0xff, 0xff, 0xff,
  0x02, 0x00, 0x00, 0x00, 0xac, 0xfc, 0xff, 0xff, 0x1b, 0x00, 0x00, 0x00,
  0x53, 0x74, 0x61, 0x74, 0x65, 0x66, 0x75, 0x6c, 0x50, 0x61, 0x72, 0x74,
  0x69, 0x74, 0x69, 0x6f, 0x6e, 0x65, 0x64, 0x43, 0x61, 0x6c, 0x6c, 0x5f,
  0x31, 0x3a, 0x30, 0x00, 0x02, 0x00, 0x00, 0x00, 0x01, 0x00, 0x00, 0x00,
  0x02, 0x00, 0x00, 0x00, 0x1a, 0xfd, 0xff, 0xff, 0x00, 0x00, 0x00, 0x01,
  0x14, 0x00, 0x00, 0x00, 0x1c, 0x00, 0x00, 0x00, 0x1c, 0x00, 0x00, 0x00,
  0x09, 0x00, 0x00, 0x00, 0x74, 0x00, 0x00, 0x00, 0x02, 0x00, 0x00, 0x00,
  0xff, 0xff, 0xff, 0xff, 0x10, 0x00, 0x00, 0x00, 0x04, 0xfd, 0xff, 0xff,
  0x58, 0x00, 0x00, 0x00, 0x66, 0x75, 0x6e, 0x63, 0x74, 0x69, 0x6f, 0x6e,
  0x61, 0x6c, 0x5f, 0x31, 0x2f, 0x64, 0x65, 0x6e, 0x73, 0x65, 0x5f, 0x31,
  0x5f, 0x32, 0x2f, 0x4d, 0x61, 0x74, 0x4d, 0x75, 0x6c, 0x3b, 0x66, 0x75,
  0x6e, 0x63, 0x74, 0x69, 0x6f, 0x6e, 0x61, 0x6c, 0x5f, 0x31, 0x2f, 0x64,
  0x65, 0x6e, 0x73, 0x65, 0x5f, 0x31, 0x5f, 0x32, 0x2f, 0x52, 0x65, 0x6c,
  0x75, 0x3b, 0x66, 0x75, 0x6e, 0x63, 0x74, 0x69, 0x6f, 0x6e, 0x61, 0x6c,
  0x5f, 0x31, 0x2f, 0x64, 0x65, 0x6e, 0x73, 0x65, 0x5f, 0x31, 0x5f, 0x32,
  0x2f, 0x42, 0x69, 0x61, 0x73, 0x41, 0x64, 0x64, 0x00, 0x00, 0x00, 0x00,
  0x02, 0x00, 0x00, 0x00, 0x01, 0x00, 0x00, 0x00, 0x10, 0x00, 0x00, 0x00,
  0xb2, 0xfd, 0xff, 0xff, 0x00, 0x00, 0x00, 0x01, 0x14, 0x00, 0x00, 0x00,
  0x1c, 0x00, 0x00, 0x00, 0x1c, 0x00, 0x00, 0x00, 0x08, 0x00, 0x00, 0x00,
  0x6c, 0x00, 0x00, 0x00, 0x02, 0x00, 0x00, 0x00, 0xff, 0xff, 0xff, 0xff,
  0x10, 0x00, 0x00, 0x00, 0x9c, 0xfd, 0xff, 0xff, 0x52, 0x00, 0x00, 0x00,
  0x66, 0x75, 0x6e, 0x63, 0x74, 0x69, 0x6f, 0x6e, 0x61, 0x6c, 0x5f, 0x31,
  0x2f, 0x64, 0x65, 0x6e, 0x73, 0x65, 0x5f, 0x31, 0x2f, 0x4d, 0x61, 0x74,
  0x4d, 0x75, 0x6c, 0x3b, 0x66, 0x75, 0x6e, 0x63, 0x74, 0x69, 0x6f, 0x6e,
  0x61, 0x6c, 0x5f, 0x31, 0x2f, 0x64, 0x65, 0x6e, 0x73, 0x65, 0x5f, 0x31,
  0x2f, 0x52, 0x65, 0x6c, 0x75, 0x3b, 0x66, 0x75, 0x6e, 0x63, 0x74, 0x69,
  0x6f, 0x6e, 0x61, 0x6c, 0x5f, 0x31, 0x2f, 0x64, 0x65, 0x6e, 0x73, 0x65,
  0x5f, 0x31, 0x2f, 0x42, 0x69, 0x61, 0x73, 0x41, 0x64, 0x64, 0x00, 0x00,
  0x02, 0x00, 0x00, 0x00, 0x01, 0x00, 0x00, 0x00, 0x10, 0x00, 0x00, 0x00,
  0x96, 0xfe, 0xff, 0xff, 0x00, 0x00, 0x00, 0x01, 0x10, 0x00, 0x00, 0x00,
  0x10, 0x00, 0x00, 0x00, 0x07, 0x00, 0x00, 0x00, 0x28, 0x00, 0x00, 0x00,
  0x1c, 0xfe, 0xff, 0xff, 0x1b, 0x00, 0x00, 0x00, 0x66, 0x75, 0x6e, 0x63,
  0x74, 0x69, 0x6f, 0x6e, 0x61, 0x6c, 0x5f, 0x31, 0x2f, 0x64, 0x65, 0x6e,
  0x73, 0x65, 0x5f, 0x31, 0x2f, 0x4d, 0x61, 0x74, 0x4d, 0x75, 0x6c, 0x00,
  0x02, 0x00, 0x00, 0x00, 0x10, 0x00, 0x00, 0x00, 0x01, 0x00, 0x00, 0x00,
  0xde, 0xfe, 0xff, 0xff, 0x00, 0x00, 0x00, 0x01, 0x10, 0x00, 0x00, 0x00,
  0x10, 0x00, 0x00, 0x00, 0x06, 0x00, 0x00, 0x00, 0x38, 0x00, 0x00, 0x00,
  0x64, 0xfe, 0xff, 0xff, 0x2b, 0x00, 0x00, 0x00, 0x66, 0x75, 0x6e, 0x63,
  0x74, 0x69, 0x6f, 0x6e, 0x61, 0x6c, 0x5f, 0x31, 0x2f, 0x64, 0x65, 0x6e,
  0x73, 0x65, 0x5f, 0x31, 0x2f, 0x42, 0x69, 0x61, 0x73, 0x41, 0x64, 0x64,
  0x2f, 0x52, 0x65, 0x61, 0x64, 0x56, 0x61, 0x72, 0x69, 0x61, 0x62, 0x6c,
  0x65, 0x4f, 0x70, 0x00, 0x01, 0x00, 0x00, 0x00, 0x10, 0x00, 0x00, 0x00,
  0x32, 0xff, 0xff, 0xff, 0x00, 0x00, 0x00, 0x01, 0x10, 0x00, 0x00, 0x00,
  0x10, 0x00, 0x00, 0x00, 0x05, 0x00, 0x00, 0x00, 0x3c, 0x00, 0x00, 0x00,
  0xb8, 0xfe, 0xff, 0xff, 0x2d, 0x00, 0x00, 0x00, 0x66, 0x75, 0x6e, 0x63,
  0x74, 0x69, 0x6f, 0x6e, 0x61, 0x6c, 0x5f, 0x31, 0x2f, 0x64, 0x65, 0x6e,
  0x73, 0x65, 0x5f, 0x31, 0x5f, 0x32, 0x2f, 0x42, 0x69, 0x61, 0x73, 0x41,
  0x64, 0x64, 0x2f, 0x52, 0x65, 0x61, 0x64, 0x56, 0x61, 0x72, 0x69, 0x61,
  0x62, 0x6c, 0x65, 0x4f, 0x70, 0x00, 0x00, 0x00, 0x01, 0x00, 0x00, 0x00,
  0x10, 0x00, 0x00, 0x00, 0x8a, 0xff, 0xff, 0xff, 0x00, 0x00, 0x00, 0x01,
  0x10, 0x00, 0x00, 0x00, 0x10, 0x00, 0x00, 0x00, 0x04, 0x00, 0x00, 0x00,
  0x1c, 0x00, 0x00, 0x00, 0x10, 0xff, 0xff, 0xff, 0x0f, 0x00, 0x00, 0x00,
  0x61, 0x72, 0x69, 0x74, 0x68, 0x2e, 0x63, 0x6f, 0x6e, 0x73, 0x74, 0x61,
  0x6e, 0x74, 0x32, 0x00, 0x01, 0x00, 0x00, 0x00, 0x02, 0x00, 0x00, 0x00,
  0xc2, 0xff, 0xff, 0xff, 0x00, 0x00, 0x00, 0x01, 0x10, 0x00, 0x00, 0x00,
  0x10, 0x00, 0x00, 0x00, 0x03, 0x00, 0x00, 0x00, 0x1c, 0x00, 0x00, 0x00,
  0x48, 0xff, 0xff, 0xff, 0x0f, 0x00, 0x00, 0x00, 0x61, 0x72, 0x69, 0x74,
  0x68, 0x2e, 0x63, 0x6f, 0x6e, 0x73, 0x74, 0x61, 0x6e, 0x74, 0x31, 0x00,
  0x02, 0x00, 0x00, 0x00, 0x10, 0x00, 0x00, 0x00, 0x10, 0x00, 0x00, 0x00,
  0x00, 0x00, 0x16, 0x00, 0x18, 0x00, 0x14, 0x00, 0x00, 0x00, 0x10, 0x00,
  0x0c, 0x00, 0x08, 0x00, 0x00, 0x00, 0x00, 0x00, 0x00, 0x00, 0x07, 0x00,
  0x16, 0x00, 0x00, 0x00, 0x00, 0x00, 0x00, 0x01, 0x10, 0x00, 0x00, 0x00,
  0x10, 0x00, 0x00, 0x00, 0x02, 0x00, 0x00, 0x00, 0x1c, 0x00, 0x00, 0x00,
  0x9c, 0xff, 0xff, 0xff, 0x0e, 0x00, 0x00, 0x00, 0x61, 0x72, 0x69, 0x74,
  0x68, 0x2e, 0x63, 0x6f, 0x6e, 0x73, 0x74, 0x61, 0x6e, 0x74, 0x00, 0x00,
  0x02, 0x00, 0x00, 0x00, 0x02, 0x00, 0x00, 0x00, 0x10, 0x00, 0x00, 0x00,
  0x00, 0x00, 0x16, 0x00, 0x1c, 0x00, 0x18, 0x00, 0x00, 0x00, 0x14, 0x00,
  0x10, 0x00, 0x0c, 0x00, 0x00, 0x00, 0x00, 0x00, 0x08, 0x00, 0x07, 0x00,
  0x16, 0x00, 0x00, 0x00, 0x00, 0x00, 0x00, 0x01, 0x14, 0x00, 0x00, 0x00,
  0x20, 0x00, 0x00, 0x00, 0x20, 0x00, 0x00, 0x00, 0x01, 0x00, 0x00, 0x00,
  0x3c, 0x00, 0x00, 0x00, 0x02, 0x00, 0x00, 0x00, 0xff, 0xff, 0xff, 0xff,
  0x01, 0x00, 0x00, 0x00, 0x04, 0x00, 0x04, 0x00, 0x04, 0x00, 0x00, 0x00,
  0x1f, 0x00, 0x00, 0x00, 0x73, 0x65, 0x72, 0x76, 0x69, 0x6e, 0x67, 0x5f,
  0x64, 0x65, 0x66, 0x61, 0x75, 0x6c, 0x74, 0x5f, 0x65, 0x6e, 0x63, 0x6f,
  0x64, 0x65, 0x72, 0x5f, 0x69, 0x6e, 0x70, 0x75, 0x74, 0x3a, 0x30, 0x00,
  0x02, 0x00, 0x00, 0x00, 0x01, 0x00, 0x00, 0x00, 0x01, 0x00, 0x00, 0x00,
  0x01, 0x00, 0x00, 0x00, 0x10, 0x00, 0x00, 0x00, 0x0c, 0x00, 0x0c, 0x00,
  0x0b, 0x00, 0x00, 0x00, 0x00, 0x00, 0x04, 0x00, 0x0c, 0x00, 0x00, 0x00,
  0x09, 0x00, 0x00, 0x00, 0x00, 0x00, 0x00, 0x09
};
unsigned int exported_models_tflite_encoder_model_tflite_len = 3236;


#endif // ENCODER_MODEL_DATA_H
