
#ifndef ENCODER_MODEL_DATA_H
#define ENCODER_MODEL_DATA_H

// Auto-generated by xxd. Do not edit manually.
// Model expects scaled input (0 to 1 range)

unsigned char exported_models_tflite_encoder_model_tflite[] = {
  0x1c, 0x00, 0x00, 0x00, 0x54, 0x46, 0x4c, 0x33, 0x14, 0x00, 0x20, 0x00,
  0x1c, 0x00, 0x18, 0x00, 0x14, 0x00, 0x10, 0x00, 0x0c, 0x00, 0x00, 0x00,
  0x08, 0x00, 0x04, 0x00, 0x14, 0x00, 0x00, 0x00, 0x1c, 0x00, 0x00, 0x00,
  0x98, 0x00, 0x00, 0x00, 0xf0, 0x00, 0x00, 0x00, 0x58, 0x07, 0x00, 0x00,
  0x68, 0x07, 0x00, 0x00, 0x50, 0x0c, 0x00, 0x00, 0x03, 0x00, 0x00, 0x00,
  0x01, 0x00, 0x00, 0x00, 0x10, 0x00, 0x00, 0x00, 0x00, 0x00, 0x0a, 0x00,
  0x10, 0x00, 0x0c, 0x00, 0x08, 0x00, 0x04, 0x00, 0x0a, 0x00, 0x00, 0x00,
  0x0c, 0x00, 0x00, 0x00, 0x1c, 0x00, 0x00, 0x00, 0x3c, 0x00, 0x00, 0x00,
  0x0f, 0x00, 0x00, 0x00, 0x73, 0x65, 0x72, 0x76, 0x69, 0x6e, 0x67, 0x5f,
  0x64, 0x65, 0x66, 0x61, 0x75, 0x6c, 0x74, 0x00, 0x01, 0x00, 0x00, 0x00,
  0x04, 0x00, 0x00, 0x00, 0x90, 0xff, 0xff, 0xff, 0x09, 0x00, 0x00, 0x00,
  0x04, 0x00, 0x00, 0x00, 0x08, 0x00, 0x00, 0x00, 0x6f, 0x75, 0x74, 0x70,
  0x75, 0x74, 0x5f, 0x30, 0x00, 0x00, 0x00, 0x00, 0x01, 0x00, 0x00, 0x00,
  0x04, 0x00, 0x00, 0x00, 0xb6, 0xf9, 0xff, 0xff, 0x04, 0x00, 0x00, 0x00,
  0x0d, 0x00, 0x00, 0x00, 0x65, 0x6e, 0x63, 0x6f, 0x64, 0x65, 0x72, 0x5f,
  0x69, 0x6e, 0x70, 0x75, 0x74, 0x00, 0x00, 0x00, 0x02, 0x00, 0x00, 0x00,
  0x34, 0x00, 0x00, 0x00, 0x04, 0x00, 0x00, 0x00, 0xdc, 0xff, 0xff, 0xff,
  0x0c, 0x00, 0x00, 0x00, 0x04, 0x00, 0x00, 0x00, 0x13, 0x00, 0x00, 0x00,
  0x43, 0x4f, 0x4e, 0x56, 0x45, 0x52, 0x53, 0x49, 0x4f, 0x4e, 0x5f, 0x4d,
  0x45, 0x54, 0x41, 0x44, 0x41, 0x54, 0x41, 0x00, 0x08, 0x00, 0x0c, 0x00,
  0x08, 0x00, 0x04, 0x00, 0x08, 0x00, 0x00, 0x00, 0x0b, 0x00, 0x00, 0x00,
  0x04, 0x00, 0x00, 0x00, 0x13, 0x00, 0x00, 0x00, 0x6d, 0x69, 0x6e, 0x5f,
  0x72, 0x75, 0x6e, 0x74, 0x69, 0x6d, 0x65, 0x5f, 0x76, 0x65, 0x72, 0x73,
  0x69, 0x6f, 0x6e, 0x00, 0x0d, 0x00, 0x00, 0x00, 0x64, 0x06, 0x00, 0x00,
  0x5c, 0x06, 0x00, 0x00, 0xcc, 0x05, 0x00, 0x00, 0xb4, 0x01, 0x00, 0x00,
  0x9c, 0x01, 0x00, 0x00, 0x4c, 0x01, 0x00, 0x00, 0xfc, 0x00, 0x00, 0x00,
  0xac, 0x00, 0x00, 0x00, 0xa4, 0x00, 0x00, 0x00, 0x9c, 0x00, 0x00, 0x00,
  0x94, 0x00, 0x00, 0x00, 0x74, 0x00, 0x00, 0x00, 0x04, 0x00, 0x00, 0x00,
  0x66, 0xfa, 0xff, 0xff, 0x04, 0x00, 0x00, 0x00, 0x60, 0x00, 0x00, 0x00,
  0x10, 0x00, 0x00, 0x00, 0x00, 0x00, 0x00, 0x00, 0x08, 0x00, 0x0e, 0x00,
  0x08, 0x00, 0x04, 0x00, 0x08, 0x00, 0x00, 0x00, 0x10, 0x00, 0x00, 0x00,
  0x24, 0x00, 0x00, 0x00, 0x00, 0x00, 0x06, 0x00, 0x08, 0x00, 0x04, 0x00,
  0x06, 0x00, 0x00, 0x00, 0x04, 0x00, 0x00, 0x00, 0x00, 0x00, 0x00, 0x00,
  0x0c, 0x00, 0x18, 0x00, 0x14, 0x00, 0x10, 0x00, 0x0c, 0x00, 0x04, 0x00,
  0x0c, 0x00, 0x00, 0x00, 0x07, 0x0a, 0x31, 0x1c, 0xf9, 0x13, 0x4d, 0x2c,
  0x02, 0x00, 0x00, 0x00, 0x02, 0x00, 0x00, 0x00, 0x04, 0x00, 0x00, 0x00,
  0x06, 0x00, 0x00, 0x00, 0x32, 0x2e, 0x31, 0x39, 0x2e, 0x30, 0x00, 0x00,
  0xd2, 0xfa, 0xff, 0xff, 0x04, 0x00, 0x00, 0x00, 0x10, 0x00, 0x00, 0x00,
  0x31, 0x2e, 0x35, 0x2e, 0x30, 0x00, 0x00, 0x00, 0x00, 0x00, 0x00, 0x00,
  0x00, 0x00, 0x00, 0x00, 0x8c, 0xf5, 0xff, 0xff, 0x90, 0xf5, 0xff, 0xff,
  0x94, 0xf5, 0xff, 0xff, 0xfa, 0xfa, 0xff, 0xff, 0x04, 0x00, 0x00, 0x00,
  0x40, 0x00, 0x00, 0x00, 0xf8, 0x14, 0x2d, 0x3f, 0x4a, 0xa3, 0x0c, 0xbf,
  0x14, 0x5f, 0xcf, 0xbd, 0xa0, 0x51, 0xd6, 0xbc, 0x5f, 0xfa, 0x52, 0x3f,
  0x9f, 0xd7, 0x0f, 0x3f, 0xd3, 0xdb, 0x2a, 0x3f, 0x3e, 0xf5, 0x1b, 0xbe,
  0xf5, 0x57, 0xaa, 0xbe, 0x11, 0xdb, 0x11, 0x3f, 0xc8, 0xe0, 0x90, 0xbe,
  0xce, 0x83, 0xd8, 0x3e, 0xd7, 0xa1, 0xa7, 0xbe, 0xce, 0x85, 0xf0, 0x3e,
  0x7b, 0x05, 0xa7, 0xbe, 0x48, 0x12, 0xb8, 0x3e, 0x46, 0xfb, 0xff, 0xff,
  0x04, 0x00, 0x00, 0x00, 0x40, 0x00, 0x00, 0x00, 0x5e, 0x3c, 0x11, 0x3f,
  0x00, 0x00, 0x00, 0x00, 0x00, 0x00, 0x00, 0x00, 0x00, 0x00, 0x00, 0x00,
  0x8c, 0x63, 0xb8, 0x39, 0xb0, 0x2c, 0x76, 0x3c, 0xa4, 0x8e, 0xab, 0x39,
  0x00, 0x00, 0x00, 0x00, 0x00, 0x00, 0x00, 0x00, 0x42, 0xbd, 0xa7, 0x39,
  0x00, 0x00, 0x00, 0x00, 0x21, 0xca, 0xce, 0x39, 0x00, 0x00, 0x00, 0x00,
  0x68, 0xe9, 0xf8, 0x3e, 0x00, 0x00, 0x00, 0x00, 0xff, 0xf5, 0x0f, 0x3e,
  0x92, 0xfb, 0xff, 0xff, 0x04, 0x00, 0x00, 0x00, 0x40, 0x00, 0x00, 0x00,
  0x00, 0x00, 0x00, 0x00, 0xc0, 0xa6, 0x35, 0xbe, 0x00, 0x00, 0x00, 0x00,
  0x6a, 0x90, 0xfe, 0xbc, 0x58, 0x66, 0x16, 0x3c, 0x67, 0x43, 0xd3, 0xbc,
  0x99, 0x16, 0x9e, 0x3e, 0x51, 0x67, 0xa5, 0xbb, 0x21, 0x9b, 0xb2, 0xbb,
  0x89, 0x97, 0xd2, 0xbc, 0x14, 0x75, 0xc6, 0x3e, 0xb4, 0x56, 0x9f, 0xbd,
  0x18, 0x01, 0x63, 0xbe, 0x00, 0x00, 0x00, 0x00, 0xaa, 0x4a, 0xf0, 0x3e,
  0x00, 0x00, 0x00, 0x00, 0xde, 0xfb, 0xff, 0xff, 0x04, 0x00, 0x00, 0x00,
  0x08, 0x00, 0x00, 0x00, 0xd0, 0x93, 0x90, 0x3e, 0xf3, 0xdf, 0xfe, 0xbe,
  0xf2, 0xfb, 0xff, 0xff, 0x04, 0x00, 0x00, 0x00, 0x00, 0x04, 0x00, 0x00,
  0x30, 0x7a, 0x09, 0xbd, 0x6e, 0xf1, 0x2a, 0xbe, 0x96, 0x30, 0x7d, 0x3e,
  0xbd, 0xfd, 0xbe, 0x3e, 0x08, 0xbb, 0x9a, 0xbd, 0x02, 0x50, 0x02, 0x3e,
  0x23, 0x27, 0xd5, 0xbe, 0xa4, 0x86, 0xa3, 0xbe, 0xf3, 0x78, 0x87, 0x3e,
  0x6f, 0xa8, 0xac, 0xbe, 0x16, 0x30, 0x44, 0xbe, 0x5b, 0xc0, 0x5f, 0xbe,
  0x14, 0x88, 0xcb, 0x3d, 0xd6, 0xc4, 0x9f, 0xbe, 0xca, 0xd0, 0x13, 0xbe,
  0x49, 0x2c, 0x9a, 0x3e, 0xae, 0xfe, 0x9f, 0xbc, 0x85, 0x7e, 0x84, 0x3e,
  0x7f, 0xfc, 0x84, 0x3e, 0x9d, 0x02, 0xbe, 0x3e, 0xbd, 0xe6, 0x1b, 0x3f,
  0x6b, 0xbf, 0xf2, 0x3d, 0xa3, 0xb3, 0xee, 0x3e, 0x3c, 0x0e, 0xa5, 0x3d,
  0x0c, 0xd2, 0x8d, 0xbe, 0x6e, 0x22, 0x8e, 0x3e, 0x3d, 0x6f, 0xb1, 0x3e,
  0xee, 0x31, 0x67, 0x3e, 0x46, 0xae, 0x3f, 0x3e, 0x16, 0x22, 0x0a, 0x3f,
  0x78, 0x56, 0xee, 0xbd, 0xf6, 0x7e, 0x99, 0x3e, 0xe0, 0x16, 0x29, 0x3d,
  0x3c, 0x13, 0xc6, 0xbe, 0x98, 0x2b, 0x59, 0x3d, 0x00, 0x97, 0xf6, 0x3c,
  0x16, 0x51, 0x29, 0xbe, 0x0c, 0x60, 0xfd, 0x3d, 0x6a, 0x5e, 0xbe, 0xbe,
  0x0b, 0x11, 0x97, 0x3e, 0xf6, 0xbc, 0xc3, 0xbe, 0xfa, 0x7e, 0x8e, 0xbe,
  0xa0, 0x8e, 0xeb, 0xbc, 0x25, 0x9a, 0xd3, 0xbe, 0x64, 0xe2, 0xd8, 0xbe,
  0xf4, 0x7c, 0xc3, 0xbe, 0x9d, 0x7d, 0xb7, 0x3e, 0x0b, 0xc6, 0x44, 0xbe,
  0x30, 0x9c, 0x03, 0x3e, 0x6a, 0xda, 0xdc, 0xbe, 0x57, 0x12, 0xa9, 0xbe,
  0xd2, 0x90, 0x4d, 0x3e, 0x45, 0x7a, 0x03, 0x3f, 0x82, 0x06, 0x0d, 0x3f,
  0x00, 0x4b, 0xe7, 0xbd, 0x8a, 0x41, 0x8f, 0xbe, 0x58, 0x0a, 0x25, 0xbe,
  0x69, 0xcc, 0x1c, 0x3f, 0x40, 0x6c, 0x56, 0xbd, 0x97, 0x53, 0x73, 0xbc,
  0x22, 0xb1, 0x2f, 0x3e, 0xb6, 0x1c, 0x28, 0xbe, 0xe4, 0xb6, 0xcc, 0xbe,
  0xc3, 0x7e, 0x5e, 0x3e, 0x82, 0x2f, 0xad, 0xbd, 0x40, 0xac, 0xca, 0x3c,
  0x0e, 0x86, 0x42, 0xbe, 0xd8, 0x32, 0x5a, 0x3d, 0x6b, 0x2b, 0x07, 0x3d,
  0x57, 0xe5, 0x0c, 0x3f, 0x83, 0x92, 0xb5, 0x3e, 0x0e, 0x4c, 0x9d, 0xbe,
  0xee, 0xa7, 0x30, 0xbe, 0xc6, 0xcd, 0xe9, 0x3e, 0xce, 0x2b, 0x4c, 0x3e,
  0x51, 0xcc, 0x1b, 0x3f, 0x14, 0x24, 0xb1, 0x3d, 0x12, 0xdc, 0x1a, 0x3d,
  0xc2, 0x0c, 0x7a, 0x3e, 0xbc, 0xf4, 0xbf, 0x3d, 0x30, 0x0c, 0xa6, 0x3e,
  0x8e, 0xd2, 0x9c, 0xbe, 0x0b, 0x61, 0x85, 0x3e, 0xcc, 0xca, 0x14, 0xbe,
  0x06, 0x52, 0x9f, 0x3e, 0x1b, 0x97, 0x48, 0x3e, 0xa8, 0x4c, 0xd8, 0xbe,
  0x96, 0x91, 0x32, 0x3e, 0x94, 0x4e, 0x45, 0xbe, 0xe4, 0xf8, 0x1a, 0xbe,
  0x26, 0xf8, 0x43, 0x3e, 0x30, 0xe6, 0x83, 0xbe, 0xd0, 0x4f, 0x99, 0x3c,
  0x5b, 0xbf, 0xc4, 0xbe, 0x36, 0x3c, 0x27, 0xbe, 0x5e, 0x27, 0x6a, 0xbd,
  0xb1, 0x28, 0x41, 0x3f, 0xcf, 0xcc, 0xcc, 0x3e, 0x5a, 0x82, 0x7f, 0x3e,
  0x71, 0x8d, 0x3f, 0xbe, 0xf8, 0x2b, 0xb7, 0x3e, 0x44, 0x0f, 0x12, 0xbe,
  0x4a, 0xdd, 0x25, 0x3f, 0xb6, 0xa0, 0xa0, 0xbe, 0x60, 0xc7, 0xc2, 0x3c,
  0x6b, 0xfd, 0xac, 0x3e, 0x98, 0x05, 0xa8, 0xbd, 0xe1, 0xfa, 0x05, 0x3f,
  0xe9, 0x90, 0xc5, 0x3e, 0x66, 0xbb, 0x49, 0x3e, 0x20, 0x80, 0x0d, 0x3c,
  0x66, 0xb6, 0x22, 0x3f, 0xe8, 0xcf, 0x87, 0xbe, 0x39, 0x2e, 0xb8, 0x3e,
  0x2c, 0xc6, 0x24, 0xbe, 0xd0, 0xf7, 0x45, 0x3d, 0x5d, 0x43, 0xb6, 0xbe,
  0x39, 0x2c, 0xd5, 0xbe, 0x40, 0xdb, 0x95, 0x3b, 0x72, 0x4c, 0x2a, 0xbe,
  0xf2, 0x31, 0x4e, 0x3e, 0x34, 0x08, 0x95, 0x3d, 0xf6, 0xdb, 0x8a, 0xbe,
  0xd8, 0x65, 0x5a, 0xbd, 0xc5, 0x5d, 0x89, 0x3e, 0x49, 0xe5, 0x6f, 0x3e,
  0x38, 0x9a, 0x25, 0x3d, 0x60, 0xa4, 0xeb, 0x3d, 0xa3, 0xdc, 0xc3, 0xbe,
  0x38, 0x57, 0x65, 0xbe, 0x50, 0x73, 0xdd, 0x3c, 0x3a, 0x7f, 0x1c, 0x3e,
  0x07, 0x32, 0x2e, 0x3e, 0x65, 0xf2, 0x4f, 0x3e, 0x8b, 0x3e, 0xd3, 0xbe,
  0x32, 0x80, 0x61, 0x3e, 0xc6, 0x7c, 0x0b, 0xbe, 0xcf, 0x9f, 0x9b, 0xbe,
  0x79, 0xa4, 0x80, 0x3e, 0x3a, 0xf7, 0xcb, 0xbe, 0x98, 0x68, 0x0d, 0xbe,
  0x12, 0xc7, 0xbb, 0x3e, 0x09, 0x9b, 0xa6, 0x3e, 0x38, 0xbc, 0x4f, 0x3e,
  0x7c, 0xf2, 0x4f, 0xbe, 0x3a, 0x38, 0x6b, 0x3e, 0x95, 0x3b, 0xbb, 0xbe,
  0xbf, 0x3c, 0xa1, 0x3e, 0x5d, 0x73, 0x2e, 0x3e, 0x9f, 0x0f, 0x21, 0x3c,
  0x29, 0xef, 0xd9, 0xbe, 0xe0, 0xa2, 0xfd, 0xbc, 0x27, 0xe0, 0x4f, 0xbe,
  0xea, 0xbd, 0x11, 0xbe, 0x0a, 0xe6, 0x6e, 0x3e, 0x72, 0xf3, 0x8b, 0xbe,
  0x0d, 0xcf, 0x62, 0xbe, 0x36, 0xc7, 0xa2, 0x3e, 0x1f, 0x42, 0x5d, 0xbe,
  0xa2, 0x3a, 0x09, 0xbe, 0xaf, 0x34, 0xc9, 0x3e, 0x24, 0xf6, 0x83, 0xbd,
  0x87, 0x1e, 0x8c, 0x3e, 0x20, 0x4a, 0x54, 0x3d, 0x1f, 0xf6, 0xbb, 0xbe,
  0xc8, 0xcf, 0x0d, 0x3e, 0x04, 0xbe, 0xa3, 0xbe, 0x96, 0xa1, 0x11, 0x3e,
  0xe4, 0x15, 0xd1, 0x3d, 0x0e, 0x29, 0x23, 0xbf, 0x48, 0x5a, 0x56, 0x3d,
  0x21, 0xd2, 0xba, 0xbe, 0xe3, 0xae, 0x4d, 0xbe, 0xae, 0x9c, 0x3c, 0xbd,
  0x38, 0x3b, 0x53, 0xbe, 0xa2, 0x89, 0xb4, 0x3e, 0xe4, 0x58, 0xa5, 0x3e,
  0x3c, 0x98, 0xa6, 0x3d, 0xda, 0x02, 0x5d, 0x3e, 0xe4, 0x5f, 0xd1, 0x3d,
  0x9b, 0xfd, 0x09, 0x3f, 0xa5, 0x42, 0x14, 0x3f, 0x8e, 0x05, 0x59, 0xbe,
  0x2f, 0xde, 0xbc, 0x3e, 0xac, 0x0b, 0xc4, 0x3d, 0xcf, 0xcf, 0x9e, 0x3e,
  0x20, 0xd1, 0x1b, 0xbc, 0xbb, 0x3e, 0xb1, 0x3e, 0x20, 0x52, 0x73, 0xbc,
  0xe6, 0x4f, 0xec, 0xbc, 0xa4, 0x21, 0xd7, 0x3d, 0x24, 0x60, 0xdf, 0xbd,
  0x02, 0x99, 0x07, 0x3f, 0xda, 0x0e, 0xce, 0xbe, 0x72, 0x1c, 0xc5, 0xbe,
  0xbc, 0xf0, 0xcb, 0xbe, 0xef, 0x9e, 0x28, 0xbe, 0x1d, 0x8a, 0xc3, 0x3e,
  0x36, 0x9c, 0x18, 0x3f, 0x0c, 0x6f, 0x84, 0x3d, 0x00, 0x96, 0x1a, 0xba,
  0xda, 0x8b, 0xa9, 0x3e, 0xdc, 0xb7, 0xbe, 0xbe, 0x99, 0x2f, 0xfb, 0x3e,
  0x00, 0xa6, 0xa3, 0x3c, 0xde, 0x87, 0xb2, 0xbd, 0x82, 0xde, 0x9a, 0xbe,
  0xc2, 0x3a, 0xa8, 0x3e, 0x40, 0xbb, 0x4e, 0x3c, 0xe2, 0x6e, 0xa7, 0xbe,
  0x20, 0xa0, 0x65, 0x3c, 0x1e, 0x41, 0x6d, 0x3e, 0x0a, 0x5a, 0x0c, 0xbe,
  0x10, 0x91, 0xa7, 0xbc, 0xd1, 0xed, 0x9b, 0x3e, 0x78, 0x87, 0x87, 0x3d,
  0xed, 0x0c, 0x9c, 0x3e, 0x42, 0x64, 0x35, 0xbe, 0xb7, 0xb7, 0xa5, 0x3e,
  0x35, 0xd0, 0x98, 0x3e, 0x9f, 0x6d, 0xc2, 0x3e, 0x88, 0xa5, 0xad, 0xbe,
  0x0f, 0x55, 0xae, 0x3e, 0x5b, 0xb7, 0xd5, 0xbe, 0x30, 0xcf, 0x82, 0x3e,
  0xfd, 0x25, 0xac, 0xbe, 0xfc, 0x2a, 0x93, 0x3d, 0x60, 0xef, 0x08, 0x3c,
  0x84, 0xfb, 0xcd, 0xbe, 0xd0, 0x0c, 0x92, 0xbd, 0x6f, 0x47, 0xb3, 0xbe,
  0x7e, 0x4a, 0x7c, 0x3e, 0x27, 0x34, 0xc7, 0x3e, 0xd3, 0xca, 0xd5, 0xbe,
  0xe2, 0xf5, 0x04, 0x3e, 0x06, 0x58, 0x11, 0x3e, 0xc2, 0x69, 0x9a, 0xbe,
  0x85, 0x86, 0xf0, 0x3e, 0x26, 0x44, 0x33, 0x3e, 0xd9, 0x7c, 0xf9, 0xbd,
  0x98, 0xd4, 0xf2, 0xbd, 0xf6, 0x6e, 0xa6, 0xbe, 0xab, 0x19, 0xb5, 0xbe,
  0x01, 0xca, 0x8f, 0x3e, 0x00, 0x7e, 0xf7, 0x3a, 0x4a, 0x27, 0x88, 0xbe,
  0xe4, 0x8b, 0x95, 0xbd, 0xcb, 0x57, 0xa0, 0x3e, 0xae, 0x91, 0x23, 0x3e,
  0x9e, 0xab, 0x69, 0x3e, 0x90, 0x5e, 0xd8, 0x3c, 0xca, 0x8a, 0xaf, 0xbe,
  0x10, 0x88, 0xc4, 0xbd, 0x4d, 0xe0, 0xc0, 0xbe, 0x74, 0xa3, 0xe1, 0x3d,
  0xa1, 0x86, 0xc0, 0x3e, 0x00, 0x00, 0x06, 0x00, 0x08, 0x00, 0x04, 0x00,
  0x06, 0x00, 0x00, 0x00, 0x04, 0x00, 0x00, 0x00, 0x80, 0x00, 0x00, 0x00,
  0x6e, 0x85, 0x21, 0xbe, 0x57, 0x24, 0x23, 0xbf, 0xec, 0xdb, 0xfa, 0x3e,
  0x01, 0x34, 0xb5, 0xbe, 0x6a, 0xc0, 0x46, 0xbf, 0x2b, 0x69, 0xfd, 0xbe,
  0xf0, 0xe8, 0x5d, 0xbe, 0x29, 0x53, 0x56, 0x3e, 0x32, 0x27, 0x86, 0xbe,
  0xc0, 0x19, 0xf8, 0xbe, 0x8c, 0xbd, 0x73, 0x3f, 0xf6, 0x8c, 0x25, 0xbf,
  0xff, 0x6b, 0xfe, 0xbe, 0x5a, 0xba, 0x58, 0xbe, 0xa1, 0x07, 0x51, 0x3f,
  0xb4, 0xc4, 0x6d, 0xbe, 0xea, 0x56, 0xbc, 0x3e, 0x7a, 0xe1, 0x33, 0xbe,
  0x9a, 0x67, 0xb2, 0xbe, 0x48, 0xc2, 0xb8, 0x3e, 0x04, 0x7c, 0xd5, 0xbc,
  0x63, 0x0a, 0x08, 0xbe, 0x49, 0x0c, 0xb5, 0xbe, 0x59, 0xb2, 0x9d, 0x3d,
  0x89, 0x33, 0xc5, 0xbc, 0x5f, 0x89, 0xe8, 0x3d, 0x52, 0x5a, 0x52, 0xbf,
  0x27, 0xd7, 0xad, 0xbe, 0x5e, 0xbe, 0x9c, 0xbd, 0xdc, 0xf9, 0x77, 0xbe,
  0x8b, 0xca, 0x99, 0xbf, 0x84, 0xcd, 0xf2, 0x3e, 0x30, 0xfb, 0xff, 0xff,
  0x34, 0xfb, 0xff, 0xff, 0x0f, 0x00, 0x00, 0x00, 0x4d, 0x4c, 0x49, 0x52,
  0x20, 0x43, 0x6f, 0x6e, 0x76, 0x65, 0x72, 0x74, 0x65, 0x64, 0x2e, 0x00,
  0x01, 0x00, 0x00, 0x00, 0x14, 0x00, 0x00, 0x00, 0x00, 0x00, 0x0e, 0x00,
  0x18, 0x00, 0x14, 0x00, 0x10, 0x00, 0x0c, 0x00, 0x08, 0x00, 0x04, 0x00,
  0x0e, 0x00, 0x00, 0x00, 0x14, 0x00, 0x00, 0x00, 0x1c, 0x00, 0x00, 0x00,
  0xd8, 0x00, 0x00, 0x00, 0xdc, 0x00, 0x00, 0x00, 0xe0, 0x00, 0x00, 0x00,
  0x04, 0x00, 0x00, 0x00, 0x6d, 0x61, 0x69, 0x6e, 0x00, 0x00, 0x00, 0x00,
  0x03, 0x00, 0x00, 0x00, 0x80, 0x00, 0x00, 0x00, 0x38, 0x00, 0x00, 0x00,
  0x04, 0x00, 0x00, 0x00, 0x9a, 0xff, 0xff, 0xff, 0x10, 0x00, 0x00, 0x00,
  0x00, 0x00, 0x00, 0x08, 0x0c, 0x00, 0x00, 0x00, 0x10, 0x00, 0x00, 0x00,
  0xac, 0xfb, 0xff, 0xff, 0x01, 0x00, 0x00, 0x00, 0x09, 0x00, 0x00, 0x00,
  0x03, 0x00, 0x00, 0x00, 0x08, 0x00, 0x00, 0x00, 0x01, 0x00, 0x00, 0x00,
  0x03, 0x00, 0x00, 0x00, 0xca, 0xff, 0xff, 0xff, 0x10, 0x00, 0x00, 0x00,
  0x00, 0x00, 0x00, 0x08, 0x10, 0x00, 0x00, 0x00, 0x14, 0x00, 0x00, 0x00,
  0xba, 0xff, 0xff, 0xff, 0x00, 0x00, 0x00, 0x01, 0x01, 0x00, 0x00, 0x00,
  0x08, 0x00, 0x00, 0x00, 0x03, 0x00, 0x00, 0x00, 0x07, 0x00, 0x00, 0x00,
  0x02, 0x00, 0x00, 0x00, 0x04, 0x00, 0x00, 0x00, 0x00, 0x00, 0x0e, 0x00,
  0x16, 0x00, 0x00, 0x00, 0x10, 0x00, 0x0c, 0x00, 0x0b, 0x00, 0x04, 0x00,
  0x0e, 0x00, 0x00, 0x00, 0x18, 0x00, 0x00, 0x00, 0x00, 0x00, 0x00, 0x08,
  0x18, 0x00, 0x00, 0x00, 0x1c, 0x00, 0x00, 0x00, 0x00, 0x00, 0x06, 0x00,
  0x08, 0x00, 0x07, 0x00, 0x06, 0x00, 0x00, 0x00, 0x00, 0x00, 0x00, 0x01,
  0x01, 0x00, 0x00, 0x00, 0x07, 0x00, 0x00, 0x00, 0x03, 0x00, 0x00, 0x00,
  0x00, 0x00, 0x00, 0x00, 0x06, 0x00, 0x00, 0x00, 0x05, 0x00, 0x00, 0x00,
  0x01, 0x00, 0x00, 0x00, 0x09, 0x00, 0x00, 0x00, 0x01, 0x00, 0x00, 0x00,
  0x00, 0x00, 0x00, 0x00, 0x0a, 0x00, 0x00, 0x00, 0x7c, 0x03, 0x00, 0x00,
  0x24, 0x03, 0x00, 0x00, 0xcc, 0x02, 0x00, 0x00, 0x90, 0x02, 0x00, 0x00,
  0x34, 0x02, 0x00, 0x00, 0xdc, 0x01, 0x00, 0x00, 0x90, 0x01, 0x00, 0x00,
  0xfc, 0x00, 0x00, 0x00, 0x60, 0x00, 0x00, 0x00, 0x04, 0x00, 0x00, 0x00,
  0xc2, 0xfc, 0xff, 0xff, 0x00, 0x00, 0x00, 0x01, 0x14, 0x00, 0x00, 0x00,
  0x1c, 0x00, 0x00, 0x00, 0x1c, 0x00, 0x00, 0x00, 0x0a, 0x00, 0x00, 0x00,
  0x34, 0x00, 0x00, 0x00, 0x02, 0x00, 0x00, 0x00, 0xff, 0xff, 0xff, 0xff,
  0x02, 0x00, 0x00, 0x00, 0xac, 0xfc, 0xff, 0xff, 0x1b, 0x00, 0x00, 0x00,
  0x53, 0x74, 0x61, 0x74, 0x65, 0x66, 0x75, 0x6c, 0x50, 0x61, 0x72, 0x74,
  0x69, 0x74, 0x69, 0x6f, 0x6e, 0x65, 0x64, 0x43, 0x61, 0x6c, 0x6c, 0x5f,
  0x31, 0x3a, 0x30, 0x00, 0x02, 0x00, 0x00, 0x00, 0x01, 0x00, 0x00, 0x00,
  0x02, 0x00, 0x00, 0x00, 0x1a, 0xfd, 0xff, 0xff, 0x00, 0x00, 0x00, 0x01,
  0x14, 0x00, 0x00, 0x00, 0x1c, 0x00, 0x00, 0x00, 0x1c, 0x00, 0x00, 0x00,
  0x09, 0x00, 0x00, 0x00, 0x74, 0x00, 0x00, 0x00, 0x02, 0x00, 0x00, 0x00,
  0xff, 0xff, 0xff, 0xff, 0x10, 0x00, 0x00, 0x00, 0x04, 0xfd, 0xff, 0xff,
  0x58, 0x00, 0x00, 0x00, 0x66, 0x75, 0x6e, 0x63, 0x74, 0x69, 0x6f, 0x6e,
  0x61, 0x6c, 0x5f, 0x31, 0x2f, 0x64, 0x65, 0x6e, 0x73, 0x65, 0x5f, 0x31,
  0x5f, 0x32, 0x2f, 0x4d, 0x61, 0x74, 0x4d, 0x75, 0x6c, 0x3b, 0x66, 0x75,
  0x6e, 0x63, 0x74, 0x69, 0x6f, 0x6e, 0x61, 0x6c, 0x5f, 0x31, 0x2f, 0x64,
  0x65, 0x6e, 0x73, 0x65, 0x5f, 0x31, 0x5f, 0x32, 0x2f, 0x52, 0x65, 0x6c,
  0x75, 0x3b, 0x66, 0x75, 0x6e, 0x63, 0x74, 0x69, 0x6f, 0x6e, 0x61, 0x6c,
  0x5f, 0x31, 0x2f, 0x64, 0x65, 0x6e, 0x73, 0x65, 0x5f, 0x31, 0x5f, 0x32,
  0x2f, 0x42, 0x69, 0x61, 0x73, 0x41, 0x64, 0x64, 0x00, 0x00, 0x00, 0x00,
  0x02, 0x00, 0x00, 0x00, 0x01, 0x00, 0x00, 0x00, 0x10, 0x00, 0x00, 0x00,
  0xb2, 0xfd, 0xff, 0xff, 0x00, 0x00, 0x00, 0x01, 0x14, 0x00, 0x00, 0x00,
  0x1c, 0x00, 0x00, 0x00, 0x1c, 0x00, 0x00, 0x00, 0x08, 0x00, 0x00, 0x00,
  0x6c, 0x00, 0x00, 0x00, 0x02, 0x00, 0x00, 0x00, 0xff, 0xff, 0xff, 0xff,
  0x10, 0x00, 0x00, 0x00, 0x9c, 0xfd, 0xff, 0xff, 0x52, 0x00, 0x00, 0x00,
  0x66, 0x75, 0x6e, 0x63, 0x74, 0x69, 0x6f, 0x6e, 0x61, 0x6c, 0x5f, 0x31,
  0x2f, 0x64, 0x65, 0x6e, 0x73, 0x65, 0x5f, 0x31, 0x2f, 0x4d, 0x61, 0x74,
  0x4d, 0x75, 0x6c, 0x3b, 0x66, 0x75, 0x6e, 0x63, 0x74, 0x69, 0x6f, 0x6e,
  0x61, 0x6c, 0x5f, 0x31, 0x2f, 0x64, 0x65, 0x6e, 0x73, 0x65, 0x5f, 0x31,
  0x2f, 0x52, 0x65, 0x6c, 0x75, 0x3b, 0x66, 0x75, 0x6e, 0x63, 0x74, 0x69,
  0x6f, 0x6e, 0x61, 0x6c, 0x5f, 0x31, 0x2f, 0x64, 0x65, 0x6e, 0x73, 0x65,
  0x5f, 0x31, 0x2f, 0x42, 0x69, 0x61, 0x73, 0x41, 0x64, 0x64, 0x00, 0x00,
  0x02, 0x00, 0x00, 0x00, 0x01, 0x00, 0x00, 0x00, 0x10, 0x00, 0x00, 0x00,
  0x96, 0xfe, 0xff, 0xff, 0x00, 0x00, 0x00, 0x01, 0x10, 0x00, 0x00, 0x00,
  0x10, 0x00, 0x00, 0x00, 0x07, 0x00, 0x00, 0x00, 0x28, 0x00, 0x00, 0x00,
  0x1c, 0xfe, 0xff, 0xff, 0x1b, 0x00, 0x00, 0x00, 0x66, 0x75, 0x6e, 0x63,
  0x74, 0x69, 0x6f, 0x6e, 0x61, 0x6c, 0x5f, 0x31, 0x2f, 0x64, 0x65, 0x6e,
  0x73, 0x65, 0x5f, 0x31, 0x2f, 0x4d, 0x61, 0x74, 0x4d, 0x75, 0x6c, 0x00,
  0x02, 0x00, 0x00, 0x00, 0x10, 0x00, 0x00, 0x00, 0x01, 0x00, 0x00, 0x00,
  0xde, 0xfe, 0xff, 0xff, 0x00, 0x00, 0x00, 0x01, 0x10, 0x00, 0x00, 0x00,
  0x10, 0x00, 0x00, 0x00, 0x06, 0x00, 0x00, 0x00, 0x38, 0x00, 0x00, 0x00,
  0x64, 0xfe, 0xff, 0xff, 0x2b, 0x00, 0x00, 0x00, 0x66, 0x75, 0x6e, 0x63,
  0x74, 0x69, 0x6f, 0x6e, 0x61, 0x6c, 0x5f, 0x31, 0x2f, 0x64, 0x65, 0x6e,
  0x73, 0x65, 0x5f, 0x31, 0x2f, 0x42, 0x69, 0x61, 0x73, 0x41, 0x64, 0x64,
  0x2f, 0x52, 0x65, 0x61, 0x64, 0x56, 0x61, 0x72, 0x69, 0x61, 0x62, 0x6c,
  0x65, 0x4f, 0x70, 0x00, 0x01, 0x00, 0x00, 0x00, 0x10, 0x00, 0x00, 0x00,
  0x32, 0xff, 0xff, 0xff, 0x00, 0x00, 0x00, 0x01, 0x10, 0x00, 0x00, 0x00,
  0x10, 0x00, 0x00, 0x00, 0x05, 0x00, 0x00, 0x00, 0x3c, 0x00, 0x00, 0x00,
  0xb8, 0xfe, 0xff, 0xff, 0x2d, 0x00, 0x00, 0x00, 0x66, 0x75, 0x6e, 0x63,
  0x74, 0x69, 0x6f, 0x6e, 0x61, 0x6c, 0x5f, 0x31, 0x2f, 0x64, 0x65, 0x6e,
  0x73, 0x65, 0x5f, 0x31, 0x5f, 0x32, 0x2f, 0x42, 0x69, 0x61, 0x73, 0x41,
  0x64, 0x64, 0x2f, 0x52, 0x65, 0x61, 0x64, 0x56, 0x61, 0x72, 0x69, 0x61,
  0x62, 0x6c, 0x65, 0x4f, 0x70, 0x00, 0x00, 0x00, 0x01, 0x00, 0x00, 0x00,
  0x10, 0x00, 0x00, 0x00, 0x8a, 0xff, 0xff, 0xff, 0x00, 0x00, 0x00, 0x01,
  0x10, 0x00, 0x00, 0x00, 0x10, 0x00, 0x00, 0x00, 0x04, 0x00, 0x00, 0x00,
  0x1c, 0x00, 0x00, 0x00, 0x10, 0xff, 0xff, 0xff, 0x0f, 0x00, 0x00, 0x00,
  0x61, 0x72, 0x69, 0x74, 0x68, 0x2e, 0x63, 0x6f, 0x6e, 0x73, 0x74, 0x61,
  0x6e, 0x74, 0x32, 0x00, 0x01, 0x00, 0x00, 0x00, 0x02, 0x00, 0x00, 0x00,
  0xc2, 0xff, 0xff, 0xff, 0x00, 0x00, 0x00, 0x01, 0x10, 0x00, 0x00, 0x00,
  0x10, 0x00, 0x00, 0x00, 0x03, 0x00, 0x00, 0x00, 0x1c, 0x00, 0x00, 0x00,
  0x48, 0xff, 0xff, 0xff, 0x0f, 0x00, 0x00, 0x00, 0x61, 0x72, 0x69, 0x74,
  0x68, 0x2e, 0x63, 0x6f, 0x6e, 0x73, 0x74, 0x61, 0x6e, 0x74, 0x31, 0x00,
  0x02, 0x00, 0x00, 0x00, 0x10, 0x00, 0x00, 0x00, 0x10, 0x00, 0x00, 0x00,
  0x00, 0x00, 0x16, 0x00, 0x18, 0x00, 0x14, 0x00, 0x00, 0x00, 0x10, 0x00,
  0x0c, 0x00, 0x08, 0x00, 0x00, 0x00, 0x00, 0x00, 0x00, 0x00, 0x07, 0x00,
  0x16, 0x00, 0x00, 0x00, 0x00, 0x00, 0x00, 0x01, 0x10, 0x00, 0x00, 0x00,
  0x10, 0x00, 0x00, 0x00, 0x02, 0x00, 0x00, 0x00, 0x1c, 0x00, 0x00, 0x00,
  0x9c, 0xff, 0xff, 0xff, 0x0e, 0x00, 0x00, 0x00, 0x61, 0x72, 0x69, 0x74,
  0x68, 0x2e, 0x63, 0x6f, 0x6e, 0x73, 0x74, 0x61, 0x6e, 0x74, 0x00, 0x00,
  0x02, 0x00, 0x00, 0x00, 0x02, 0x00, 0x00, 0x00, 0x10, 0x00, 0x00, 0x00,
  0x00, 0x00, 0x16, 0x00, 0x1c, 0x00, 0x18, 0x00, 0x00, 0x00, 0x14, 0x00,
  0x10, 0x00, 0x0c, 0x00, 0x00, 0x00, 0x00, 0x00, 0x08, 0x00, 0x07, 0x00,
  0x16, 0x00, 0x00, 0x00, 0x00, 0x00, 0x00, 0x01, 0x14, 0x00, 0x00, 0x00,
  0x20, 0x00, 0x00, 0x00, 0x20, 0x00, 0x00, 0x00, 0x01, 0x00, 0x00, 0x00,
  0x3c, 0x00, 0x00, 0x00, 0x02, 0x00, 0x00, 0x00, 0xff, 0xff, 0xff, 0xff,
  0x01, 0x00, 0x00, 0x00, 0x04, 0x00, 0x04, 0x00, 0x04, 0x00, 0x00, 0x00,
  0x1f, 0x00, 0x00, 0x00, 0x73, 0x65, 0x72, 0x76, 0x69, 0x6e, 0x67, 0x5f,
  0x64, 0x65, 0x66, 0x61, 0x75, 0x6c, 0x74, 0x5f, 0x65, 0x6e, 0x63, 0x6f,
  0x64, 0x65, 0x72, 0x5f, 0x69, 0x6e, 0x70, 0x75, 0x74, 0x3a, 0x30, 0x00,
  0x02, 0x00, 0x00, 0x00, 0x01, 0x00, 0x00, 0x00, 0x01, 0x00, 0x00, 0x00,
  0x01, 0x00, 0x00, 0x00, 0x10, 0x00, 0x00, 0x00, 0x0c, 0x00, 0x0c, 0x00,
  0x0b, 0x00, 0x00, 0x00, 0x00, 0x00, 0x04, 0x00, 0x0c, 0x00, 0x00, 0x00,
  0x09, 0x00, 0x00, 0x00, 0x00, 0x00, 0x00, 0x09
};
unsigned int exported_models_tflite_encoder_model_tflite_len = 3236;


#endif // ENCODER_MODEL_DATA_H
